<unk> 1
<eos> 2
<pad> 3
▁the 4
▁and 5
▁of 6
▁to 7
▁a 8
▁in 9
▁i 10
▁he 11
▁that 12
▁was 13
▁it 14
' 15
▁his 16
▁you 17
▁with 18
▁as 19
▁for 20
s 21
▁had 22
▁is 23
▁her 24
▁but 25
▁not 26
▁she 27
▁be 28
▁at 29
▁on 30
▁him 31
▁they 32
▁all 33
▁have 34
▁by 35
▁this 36
▁which 37
▁my 38
▁said 39
▁from 40
▁so 41
▁me 42
▁one 43
▁were 44
▁we 45
▁there 46
▁or 47
▁no 48
▁when 49
▁an 50
▁are 51
▁their 52
▁them 53
▁would 54
t 55
▁if 56
▁what 57
▁who 58
▁will 59
ing 60
▁out 61
▁been 62
▁up 63
▁then 64
▁man 65
▁do 66
▁could 67
▁more 68
▁into 69
▁now 70
▁very 71
ed 72
▁your 73
▁some 74
▁little 75
▁time 76
▁about 77
▁can 78
▁like 79
▁than 80
▁did 81
▁upon 82
▁only 83
▁has 84
▁well 85
▁any 86
▁over 87
▁two 88
ly 89
▁other 90
▁see 91
▁good 92
▁down 93
▁before 94
▁know 95
▁its 96
▁made 97
▁our 98
▁after 99
▁should 100
y 101
▁old 102
▁great 103
▁how 104
▁such 105
▁must 106
▁go 107
▁came 108
▁day 109
er 110
▁these 111
▁never 112
▁come 113
▁us 114
▁much 115
▁mister 116
▁where 117
▁may 118
▁first 119
▁way 120
▁here 121
▁am 122
▁again 123
▁long 124
▁went 125
▁himself 126
▁men 127
▁back 128
▁say 129
▁own 130
a 131
▁think 132
▁just 133
▁thought 134
▁might 135
▁too 136
▁away 137
▁even 138
m 139
▁life 140
▁without 141
▁through 142
▁don 143
▁make 144
▁every 145
ll 146
▁most 147
▁hand 148
▁shall 149
▁those 150
▁eyes 151
es 152
▁still 153
▁nothing 154
▁take 155
▁being 156
▁last 157
▁many 158
▁house 159
▁off 160
▁while 161
d 162
▁head 163
al 164
▁night 165
▁let 166
▁saw 167
on 168
in 169
▁once 170
▁found 171
▁people 172
o 173
ers 174
▁three 175
▁yet 176
▁get 177
▁same 178
▁under 179
▁another 180
▁place 181
▁though 182
▁tell 183
▁father 184
▁face 185
▁young 186
▁took 187
e 188
▁ever 189
ation 190
▁put 191
▁room 192
▁looked 193
▁missus 194
▁right 195
▁asked 196
▁left 197
an 198
en 199
▁t 200
▁things 201
▁look 202
▁sir 203
or 204
▁new 205
▁king 206
▁give 207
▁o 208
▁d 209
▁world 210
▁why 211
i 212
▁always 213
▁love 214
ic 215
▁b 216
▁heard 217
ve 218
▁thing 219
▁seemed 220
▁something 221
b 222
▁mother 223
re 224
▁far 225
▁because 226
le 227
▁yes 228
▁mind 229
l 230
▁told 231
▁going 232
▁home 233
▁got 234
▁p 235
▁work 236
▁door 237
ar 238
▁woman 239
▁heart 240
▁moment 241
▁knew 242
▁soon 243
▁each 244
g 245
▁oh 246
▁water 247
▁against 248
▁part 249
▁g 250
▁r 251
▁years 252
▁quite 253
▁side 254
▁find 255
ies 256
ness 257
▁few 258
p 259
▁done 260
▁light 261
▁half 262
▁better 263
▁god 264
n 265
it 266
▁also 267
us 268
▁began 269
c 270
▁having 271
▁enough 272
est 273
▁seen 274
▁miss 275
▁hands 276
▁called 277
is 278
▁whole 279
▁lady 280
▁turned 281
▁end 282
▁un 283
▁course 284
▁both 285
▁gave 286
r 287
▁between 288
▁nor 289
▁poor 290
▁set 291
able 292
▁morning 293
▁white 294
▁whom 295
▁l 296
ate 297
▁girl 298
led 299
▁felt 300
ion 301
at 302
▁myself 303
▁however 304
ity 305
▁herself 306
▁stood 307
▁c 308
▁dear 309
▁round 310
▁name 311
▁almost 312
▁days 313
▁words 314
▁want 315
▁perhaps 316
▁four 317
h 318
▁among 319
▁replied 320
▁voice 321
as 322
▁till 323
▁anything 324
▁st 325
▁boy 326
▁m 327
▁until 328
▁black 329
▁looking 330
▁hundred 331
▁cried 332
▁does 333
▁next 334
ions 335
▁sat 336
▁small 337
▁brought 338
am 339
▁k 340
▁country 341
▁air 342
▁together 343
▁indeed 344
▁since 345
▁friend 346
▁best 347
▁full 348
▁rather 349
▁n 350
▁word 351
ated 352
▁feet 353
▁kind 354
ant 355
▁de 356
▁five 357
▁f 358
ling 359
▁lay 360
ie 361
ive 362
ter 363
▁matter 364
▁gone 365
▁wife 366
▁sure 367
▁death 368
ent 369
▁s 370
▁re 371
▁high 372
et 373
w 374
▁cl 375
u 376
▁taken 377
▁others 378
ine 379
▁along 380
▁cannot 381
▁themselves 382
▁rest 383
▁child 384
▁near 385
ia 386
▁fire 387
▁open 388
▁thus 389
▁v 390
▁w 391
▁less 392
v 393
▁ch 394
▁money 395
▁keep 396
▁behind 397
ations 398
▁true 399
▁children 400
il 401
ful 402
▁answered 403
▁whose 404
▁hope 405
▁twenty 406
les 407
▁hard 408
▁believe 409
▁thou 410
▁large 411
▁power 412
ings 413
f 414
▁passed 415
id 416
▁fact 417
▁nature 418
▁alone 419
▁red 420
▁doctor 421
om 422
▁lord 423
▁sea 424
less 425
▁present 426
▁son 427
▁leave 428
▁sp 429
▁help 430
ance 431
ous 432
▁fell 433
▁bed 434
▁given 435
ry 436
▁hear 437
ish 438
ch 439
▁speak 440
▁certain 441
k 442
▁therefore 443
▁body 444
▁often 445
▁dark 446
▁war 447
▁master 448
el 449
ur 450
ac 451
▁sh 452
ment 453
▁sent 454
▁ten 455
▁dead 456
▁order 457
▁wish 458
ist 459
▁really 460
▁fl 461
st 462
▁thousand 463
▁reason 464
ors 465
▁care 466
▁hour 467
▁ground 468
▁coming 469
▁everything 470
ol 471
▁horse 472
▁above 473
▁prince 474
▁least 475
▁already 476
man 477
▁itself 478
▁used 479
▁e 480
▁use 481
▁suddenly 482
▁six 483
▁around 484
▁case 485
▁general 486
um 487
▁evening 488
▁known 489
▁land 490
▁mean 491
▁whether 492
▁within 493
▁sun 494
ard 495
▁read 496
ary 497
▁short 498
▁times 499
▁captain 500
▁j 501
▁earth 502
ad 503
▁women 504
▁friends 505
▁fr 506
▁met 507
▁call 508
ot 509
▁table 510
▁returned 511
▁held 512
▁state 513
▁point 514
▁question 515
▁during 516
▁second 517
▁beautiful 518
▁says 519
▁either 520
▁law 521
▁sight 522
▁co 523
▁lost 524
▁h 525
ical 526
▁kept 527
▁person 528
▁brother 529
▁means 530
▁fear 531
▁turn 532
▁became 533
ay 534
▁ask 535
▁making 536
he 537
▁cr 538
▁towards 539
▁year 540
▁manner 541
▁feel 542
▁form 543
im 544
▁city 545
▁big 546
▁sometimes 547
▁rose 548
▁sc 549
▁car 550
▁ready 551
▁close 552
▁pe 553
▁live 554
ian 555
▁else 556
▁past 557
▁truth 558
als 559
▁didn 560
▁business 561
ra 562
▁ran 563
▁won 564
▁answer 565
ge 566
▁need 567
▁family 568
▁bl 569
▁arms 570
ens 571
▁hair 572
▁sound 573
▁soul 574
▁letter 575
▁become 576
▁understand 577
▁possible 578
▁foot 579
▁different 580
▁several 581
ig 582
age 583
▁sort 584
▁fine 585
▁arm 586
▁idea 587
▁town 588
▁cold 589
▁able 590
▁sl 591
▁cut 592
ating 593
ons 594
th 595
ious 596
▁across 597
▁strange 598
▁doubt 599
▁story 600
▁run 601
se 602
▁window 603
▁strong 604
▁thy 605
▁bring 606
▁longer 607
▁followed 608
▁low 609
▁suppose 610
▁human 611
▁real 612
▁bad 613
red 614
▁taking 615
▁john 616
▁happy 617
▁talk 618
▁show 619
▁per 620
▁road 621
z 622
▁thee 623
▁daughter 624
▁spoke 625
▁se 626
▁return 627
▁green 628
▁le 629
▁reached 630
▁pretty 631
▁appeared 632
▁deep 633
▁opened 634
▁river 635
▁book 636
ley 637
▁hold 638
▁eye 639
▁wind 640
▁pl 641
▁blood 642
▁saying 643
ened 644
▁husband 645
ure 646
▁wood 647
▁fellow 648
▁sense 649
▁em 650
▁ye 651
▁free 652
▁continued 653
▁carried 654
▁sleep 655
▁church 656
▁certainly 657
▁ab 658
▁wanted 659
▁gold 660
▁glad 661
▁al 662
▁tree 663
▁gr 664
▁ought 665
▁ill 666
▁street 667
▁clear 668
ir 669
▁br 670
▁subject 671
▁feeling 672
ab 673
ks 674
▁blue 675
▁art 676
▁play 677
ut 678
▁ha 679
▁toward 680
▁remember 681
▁seem 682
▁seven 683
▁ar 684
▁lived 685
▁neither 686
▁except 687
ments 688
ul 689
ag 690
▁gl 691
▁bright 692
▁common 693
▁hours 694
▁sa 695
▁tried 696
ied 697
▁uncle 698
▁further 699
▁entered 700
▁cause 701
▁forward 702
ro 703
▁none 704
▁front 705
▁stand 706
▁led 707
ce 708
ans 709
▁added 710
▁act 711
▁happened 712
▁walked 713
ile 714
▁sweet 715
ves 716
▁wall 717
▁interest 718
ily 719
▁public 720
▁later 721
ins 722
ah 723
▁although 724
os 725
ates 726
ke 727
and 728
▁number 729
un 730
▁yourself 731
▁wild 732
▁doing 733
▁dis 734
▁ah 735
▁ship 736
▁seems 737
▁living 738
▁pass 739
▁ins 740
▁princess 741
▁beyond 742
▁fall 743
▁con 744
▁account 745
fully 746
em 747
ged 748
▁received 749
▁queen 750
▁party 751
▁school 752
▁line 753
ri 754
ial 755
▁court 756
▁character 757
▁bear 758
▁gentleman 759
▁fair 760
op 761
ier 762
▁laid 763
▁eight 764
▁hall 765
▁age 766
▁sister 767
▁nearly 768
▁meet 769
▁trees 770
▁tom 771
ches 772
▁eighteen 773
▁deal 774
x 775
its 776
▁forth 777
▁thinking 778
▁early 779
▁english 780
nd 781
▁try 782
▁minutes 783
▁sw 784
▁england 785
▁mary 786
ted 787
▁effect 788
qu 789
ians 790
▁afraid 791
▁late 792
▁smile 793
ill 794
▁qu 795
▁seeing 796
▁pleasure 797
▁aunt 798
▁joy 799
▁spirit 800
ered 801
ition 802
▁trouble 803
▁miles 804
▁silence 805
ow 806
ton 807
men 808
▁exclaimed 809
land 810
▁drew 811
▁sign 812
▁change 813
▁eat 814
▁purpose 815
▁necessary 816
▁standing 817
▁pay 818
▁mine 819
▁cat 820
▁heavy 821
ver 822
ally 823
▁top 824
▁caught 825
ne 826
ism 827
▁natural 828
▁hardly 829
ked 830
▁view 831
▁ad 832
▁garden 833
ice 834
▁mouth 835
ars 836
▁stopped 837
▁walk 838
our 839
▁self 840
▁wonder 841
▁grew 842
▁fast 843
▁rich 844
▁instead 845
ets 846
▁soft 847
▁length 848
▁ago 849
ence 850
▁loved 851
▁third 852
▁object 853
▁count 854
▁straight 855
ts 856
▁chance 857
▁bar 858
▁beauty 859
ering 860
▁stay 861
ched 862
aw 863
▁rep 864
▁besides 865
▁thirty 866
▁wait 867
▁dog 868
▁sitting 869
▁attention 870
▁pre 871
▁dream 872
▁position 873
▁imp 874
▁comes 875
▁mar 876
▁please 877
▁whatever 878
ities 879
▁struck 880
▁girls 881
▁force 882
▁chair 883
▁wrong 884
▁knowledge 885
ak 886
▁chief 887
ast 888
▁ho 889
▁fifty 890
ving 891
ting 892
ap 893
▁south 894
ov 895
▁thoughts 896
▁watch 897
▁getting 898
▁save 899
▁dinner 900
▁ro 901
▁die 902
▁company 903
▁immediately 904
ps 905
ible 906
▁tears 907
▁slowly 908
▁boys 909
pe 910
▁step 911
▁hat 912
ess 913
▁lo 914
▁died 915
▁stone 916
▁paper 917
be 918
au 919
▁beside 920
▁sn 921
▁send 922
▁quickly 923
▁tone 924
▁boat 925
▁brown 926
ery 927
▁quiet 928
ain 929
▁desire 930
▁filled 931
▁london 932
▁th 933
▁snow 934
▁distance 935
▁lips 936
▁north 937
oo 938
▁tr 939
▁makes 940
ite 941
ines 942
▁placed 943
▁heaven 944
ick 945
▁margaret 946
▁glass 947
ou 948
▁food 949
▁floor 950
▁dress 951
▁strength 952
▁following 953
▁en 954
▁remained 955
per 956
▁laughed 957
ade 958
▁par 959
ty 960
▁broken 961
te 962
res 963
ore 964
▁government 965
▁waiting 966
▁easy 967
▁knows 968
▁horses 969
ingly 970
▁secret 971
▁anne 972
▁jo 973
▁piece 974
▁peace 975
▁hot 976
▁bo 977
▁fight 978
▁el 979
▁neck 980
▁cross 981
co 982
▁bit 983
▁started 984
▁grand 985
▁palace 986
▁french 987
ise 988
▁thick 989
▁follow 990
are 991
▁talking 992
▁service 993
▁impossible 994
▁week 995
dy 996
ably 997
▁stop 998
▁fresh 999
▁quick 1000
▁society 1001
▁saint 1002
▁respect 1003
j 1004
ph 1005
▁inter 1006
▁pat 1007
▁post 1008
ue 1009
▁bound 1010
ass 1011
▁shut 1012
▁sal 1013
▁army 1014
ip 1015
▁corner 1016
ned 1017
▁youth 1018
▁nine 1019
▁turning 1020
▁sky 1021
ved 1022
▁below 1023
▁sudden 1024
▁sit 1025
▁single 1026
▁grace 1027
iss 1028
▁y 1029
▁success 1030
▁opinion 1031
▁worth 1032
▁danger 1033
▁perfect 1034
▁outside 1035
▁mon 1036
▁te 1037
▁couldn 1038
▁evil 1039
▁appearance 1040
▁running 1041
▁conversation 1042
▁spring 1043
▁ind 1044
▁greater 1045
ists 1046
▁winter 1047
▁showed 1048
▁clothes 1049
▁tw 1050
▁morrow 1051
▁arrived 1052
▁po 1053
▁music 1054
▁peter 1055
▁presence 1056
▁mo 1057
▁married 1058
▁fore 1059
▁box 1060
▁wh 1061
▁cry 1062
ately 1063
▁wished 1064
▁usual 1065
ome 1066
by 1067
▁giving 1068
▁probably 1069
▁battle 1070
▁simple 1071
▁mountain 1072
▁months 1073
▁island 1074
▁expression 1075
▁covered 1076
▁afternoon 1077
ms 1078
od 1079
▁cast 1080
▁states 1081
▁moved 1082
▁chapter 1083
▁bell 1084
▁forest 1085
▁comp 1086
▁silent 1087
▁speaking 1088
▁wide 1089
▁carry 1090
▁pain 1091
▁instant 1092
▁beginning 1093
▁easily 1094
▁hill 1095
▁pale 1096
▁z 1097
▁ma 1098
▁mat 1099
▁duty 1100
▁twelve 1101
▁pleasant 1102
▁forget 1103
▁figure 1104
ide 1105
ying 1106
all 1107
▁raised 1108
▁occasion 1109
▁camp 1110
▁scarcely 1111
▁star 1112
ters 1113
▁terrible 1114
▁thank 1115
ord 1116
lled 1117
▁minute 1118
▁leaving 1119
▁mor 1120
▁bird 1121
ances 1122
▁threw 1123
ics 1124
▁expected 1125
ress 1126
▁tall 1127
▁forty 1128
▁cur 1129
▁according 1130
▁flowers 1131
▁trying 1132
ative 1133
▁particular 1134
ane 1135
▁ex 1136
▁visit 1137
▁iron 1138
▁places 1139
▁learned 1140
▁especially 1141
▁office 1142
▁killed 1143
▁books 1144
▁isn 1145
▁silver 1146
▁rock 1147
▁surprise 1148
▁direction 1149
▁entirely 1150
▁bread 1151
▁field 1152
ously 1153
▁written 1154
her 1155
▁write 1156
▁ladies 1157
▁condition 1158
▁cap 1159
▁char 1160
▁action 1161
▁knight 1162
▁dev 1163
▁happiness 1164
▁note 1165
▁sad 1166
▁class 1167
▁wonderful 1168
▁pr 1169
▁golden 1170
▁unless 1171
▁west 1172
▁und 1173
▁port 1174
▁moon 1175
▁perfectly 1176
▁drink 1177
▁plain 1178
ised 1179
ically 1180
▁shook 1181
▁lie 1182
fe 1183
▁mad 1184
▁laugh 1185
ished 1186
▁steps 1187
▁closed 1188
▁broad 1189
▁merely 1190
ach 1191
▁history 1192
▁enemy 1193
▁wise 1194
▁understood 1195
▁latter 1196
▁bank 1197
▁simply 1198
▁meant 1199
▁har 1200
ire 1201
▁spot 1202
▁wouldn 1203
▁middle 1204
▁che 1205
▁born 1206
▁res 1207
▁li 1208
▁shot 1209
▁changed 1210
▁reply 1211
ib 1212
▁ed 1213
ud 1214
▁board 1215
▁news 1216
▁breath 1217
▁summer 1218
▁ne 1219
▁grass 1220
▁experience 1221
ures 1222
▁afterwards 1223
▁marriage 1224
▁lying 1225
▁finally 1226
▁fortune 1227
▁broke 1228
▁observed 1229
▁sharp 1230
▁tra 1231
▁journey 1232
▁flat 1233
▁regard 1234
▁persons 1235
▁mer 1236
av 1237
▁result 1238
ited 1239
▁listen 1240
▁beneath 1241
ck 1242
▁pocket 1243
▁repeated 1244
▁lives 1245
ently 1246
ified 1247
▁min 1248
▁inf 1249
eth 1250
▁sand 1251
ants 1252
▁escape 1253
pt 1254
▁fish 1255
▁gate 1256
▁expect 1257
iv 1258
clock 1259
▁warm 1260
▁hum 1261
▁madame 1262
▁begin 1263
▁reach 1264
ace 1265
▁sorry 1266
ute 1267
▁allowed 1268
▁dick 1269
▁pro 1270
ail 1271
▁disc 1272
pp 1273
▁rain 1274
▁future 1275
▁ass 1276
▁spite 1277
▁ear 1278
ber 1279
▁conf 1280
▁passing 1281
▁hung 1282
▁com 1283
one 1284
ges 1285
▁lad 1286
▁circumstances 1287
▁pleased 1288
▁letters 1289
▁plan 1290
▁darkness 1291
▁tea 1292
▁remain 1293
▁gu 1294
▁yellow 1295
▁important 1296
▁safe 1297
▁presently 1298
▁walls 1299
▁path 1300
▁dressed 1301
▁discovered 1302
ler 1303
▁worse 1304
▁trust 1305
ats 1306
med 1307
acy 1308
▁legs 1309
▁sick 1310
▁grave 1311
▁blind 1312
▁ste 1313
▁marry 1314
ci 1315
▁mere 1316
▁draw 1317
ching 1318
▁dry 1319
ub 1320
▁game 1321
▁sm 1322
▁heads 1323
▁exactly 1324
▁ears 1325
▁dropped 1326
▁knowing 1327
▁shore 1328
▁determined 1329
ized 1330
▁smiled 1331
▁seat 1332
▁creature 1333
▁cor 1334
▁faith 1335
▁existence 1336
▁promise 1337
▁guard 1338
▁notice 1339
▁reg 1340
▁comfort 1341
▁den 1342
ured 1343
ose 1344
▁learn 1345
▁leaves 1346
▁fixed 1347
ack 1348
▁nobody 1349
▁break 1350
▁bottom 1351
art 1352
▁houses 1353
▁ball 1354
▁considered 1355
▁crowd 1356
hed 1357
▁castle 1358
▁kill 1359
pl 1360
▁tired 1361
▁exp 1362
▁command 1363
▁habit 1364
ening 1365
▁wrote 1366
▁birds 1367
▁attempt 1368
▁ones 1369
▁drawing 1370
▁sword 1371
▁add 1372
▁start 1373
ory 1374
▁stream 1375
▁speech 1376
▁clean 1377
bs 1378
ven 1379
▁various 1380
ging 1381
nding 1382
ang 1383
▁village 1384
▁noble 1385
▁mal 1386
ents 1387
▁paid 1388
ys 1389
ony 1390
▁narrow 1391
▁jack 1392
▁allow 1393
ward 1394
▁sk 1395
▁declared 1396
▁breakfast 1397
ored 1398
▁christ 1399
▁believed 1400
gg 1401
▁train 1402
▁bill 1403
▁somewhat 1404
▁judge 1405
▁fort 1406
og 1407
▁parts 1408
▁lower 1409
▁royal 1410
▁jane 1411
▁decided 1412
ains 1413
▁remembered 1414
▁period 1415
ual 1416
▁weak 1417
▁greatest 1418
▁appear 1419
▁animal 1420
▁rel 1421
▁scene 1422
▁soldiers 1423
▁influence 1424
▁drawn 1425
▁difficulty 1426
ning 1427
▁ways 1428
▁surely 1429
▁pen 1430
▁fit 1431
▁likely 1432
▁difficult 1433
▁ancient 1434
ices 1435
▁grow 1436
▁looks 1437
▁bra 1438
▁angry 1439
▁str 1440
▁sake 1441
▁holding 1442
▁evidently 1443
▁laws 1444
▁colonel 1445
▁former 1446
ust 1447
▁courage 1448
▁picture 1449
▁inc 1450
ind 1451
▁ann 1452
▁spoken 1453
▁proper 1454
▁pet 1455
▁watched 1456
ook 1457
ner 1458
▁anxious 1459
▁finished 1460
▁lead 1461
▁inside 1462
▁ideas 1463
▁fifteen 1464
▁east 1465
de 1466
▁nice 1467
▁george 1468
ots 1469
▁henry 1470
▁delight 1471
▁touch 1472
me 1473
▁space 1474
▁formed 1475
▁fallen 1476
▁attack 1477
if 1478
▁thin 1479
▁goes 1480
▁bow 1481
▁beat 1482
▁social 1483
▁ca 1484
lly 1485
▁private 1486
▁gentlemen 1487
▁carriage 1488
int 1489
▁waited 1490
▁ourselves 1491
▁mass 1492
▁corn 1493
▁ring 1494
▁consider 1495
▁move 1496
io 1497
▁servant 1498
▁wine 1499
▁noise 1500
▁william 1501
▁windows 1502
▁win 1503
▁obliged 1504
▁del 1505
▁accept 1506
ath 1507
▁lot 1508
▁guess 1509
▁pal 1510
▁ice 1511
cl 1512
▁vain 1513
▁peculiar 1514
way 1515
▁walking 1516
▁carefully 1517
▁noticed 1518
▁mis 1519
▁everybody 1520
▁forgotten 1521
▁stranger 1522
▁shoulder 1523
king 1524
ble 1525
▁promised 1526
▁higher 1527
▁glance 1528
ash 1529
▁property 1530
▁lose 1531
ows 1532
▁main 1533
▁ag 1534
▁quietly 1535
▁france 1536
▁cup 1537
br 1538
▁generally 1539
▁american 1540
ishing 1541
▁serious 1542
▁passion 1543
▁offered 1544
▁animals 1545
lling 1546
▁sorrow 1547
▁spread 1548
▁shoulders 1549
▁leg 1550
▁handsome 1551
oth 1552
▁personal 1553
▁built 1554
▁grown 1555
▁ref 1556
▁edge 1557
▁conduct 1558
ont 1559
▁heat 1560
▁ver 1561
▁fancy 1562
▁pit 1563
▁ben 1564
▁touched 1565
▁spent 1566
▁skin 1567
▁faint 1568
▁wasn 1569
▁pieces 1570
▁med 1571
▁faces 1572
ages 1573
▁gun 1574
tered 1575
pped 1576
▁tri 1577
▁whispered 1578
▁fond 1579
ink 1580
iled 1581
▁surprised 1582
▁mountains 1583
▁coat 1584
▁chamber 1585
wood 1586
▁race 1587
ils 1588
▁system 1589
let 1590
hip 1591
▁fingers 1592
▁dare 1593
▁opportunity 1594
▁health 1595
ale 1596
▁kn 1597
▁ph 1598
▁matters 1599
own 1600
▁weather 1601
▁fer 1602
▁enter 1603
▁companion 1604
ster 1605
▁meaning 1606
▁lovely 1607
▁lu 1608
▁sing 1609
▁prepared 1610
▁effort 1611
▁opposite 1612
▁host 1613
▁du 1614
▁def 1615
atic 1616
▁shadow 1617
▁greatly 1618
▁gray 1619
▁cousin 1620
▁finding 1621
▁wear 1622
▁offer 1623
▁month 1624
▁la 1625
▁honour 1626
▁degree 1627
ald 1628
▁reading 1629
▁lake 1630
owed 1631
out 1632
▁writing 1633
▁paris 1634
▁disp 1635
▁breast 1636
ark 1637
▁honor 1638
iness 1639
▁quarter 1640
▁mark 1641
▁charge 1642
▁altogether 1643
▁situation 1644
▁pres 1645
▁feelings 1646
▁blow 1647
▁hurt 1648
▁fate 1649
▁caused 1650
▁asleep 1651
uous 1652
▁alive 1653
▁fe 1654
▁calm 1655
▁beg 1656
tering 1657
▁thrown 1658
▁memory 1659
ake 1660
▁meeting 1661
▁equal 1662
ming 1663
▁surface 1664
▁kingdom 1665
▁inv 1666
▁bent 1667
▁loss 1668
▁grey 1669
ung 1670
▁stick 1671
▁opening 1672
▁liked 1673
▁duke 1674
▁curious 1675
▁servants 1676
▁seek 1677
ert 1678
▁united 1679
▁sides 1680
▁questions 1681
▁due 1682
▁hath 1683
▁bag 1684
▁satisfied 1685
▁fo 1686
uring 1687
ny 1688
ient 1689
▁pity 1690
▁dollars 1691
uted 1692
ises 1693
ight 1694
▁dep 1695
▁cons 1696
ained 1697
▁square 1698
▁loud 1699
▁lifted 1700
▁empty 1701
▁ordered 1702
▁happen 1703
oc 1704
▁yours 1705
▁settled 1706
▁supposed 1707
▁laughing 1708
▁value 1709
▁talked 1710
▁rode 1711
▁listened 1712
▁pick 1713
▁papa 1714
▁burst 1715
▁ve 1716
▁sin 1717
ort 1718
▁vast 1719
▁rising 1720
ues 1721
▁study 1722
▁pack 1723
▁gentle 1724
▁telling 1725
▁taste 1726
▁rise 1727
▁nose 1728
▁language 1729
▁forced 1730
▁fail 1731
▁sufficient 1732
▁serve 1733
▁fat 1734
▁woods 1735
vers 1736
▁express 1737
▁sum 1738
▁pure 1739
▁proud 1740
▁frightened 1741
▁building 1742
▁valley 1743
anc 1744
▁station 1745
▁special 1746
▁pray 1747
▁mist 1748
▁smiling 1749
▁shape 1750
itions 1751
▁rec 1752
▁justice 1753
▁gar 1754
▁directly 1755
▁stairs 1756
▁sixty 1757
▁watching 1758
ality 1759
▁ordinary 1760
▁usually 1761
▁passage 1762
▁fashion 1763
ided 1764
▁seized 1765
▁season 1766
▁orders 1767
▁weeks 1768
▁honest 1769
▁pride 1770
▁growing 1771
ator 1772
▁soldier 1773
▁doesn 1774
▁unf 1775
▁lines 1776
els 1777
▁flower 1778
▁kitchen 1779
▁supper 1780
▁remarked 1781
▁baby 1782
▁prevent 1783
▁mistress 1784
▁gathered 1785
▁cost 1786
▁nearer 1787
ren 1788
▁streets 1789
▁despair 1790
▁affairs 1791
ric 1792
▁squ 1793
▁moving 1794
▁cloud 1795
▁shop 1796
▁putting 1797
ively 1798
▁sub 1799
▁monsieur 1800
▁gra 1801
ham 1802
aring 1803
▁york 1804
▁fly 1805
▁contrary 1806
▁catch 1807
▁ap 1808
▁imagine 1809
hes 1810
▁val 1811
▁search 1812
▁hole 1813
act 1814
ls 1815
bo 1816
▁dr 1817
▁receive 1818
▁complete 1819
lin 1820
▁van 1821
▁twice 1822
▁march 1823
orn 1824
ina 1825
▁possess 1826
ced 1827
▁er 1828
ides 1829
▁storm 1830
▁working 1831
▁movement 1832
▁hills 1833
bed 1834
▁pulled 1835
ound 1836
itt 1837
na 1838
ards 1839
▁prove 1840
▁tail 1841
▁harm 1842
▁dust 1843
son 1844
▁suit 1845
▁proved 1846
▁possession 1847
▁mill 1848
▁engaged 1849
▁arthur 1850
▁haven 1851
▁uns 1852
▁stones 1853
▁aside 1854
▁instance 1855
▁authority 1856
▁advantage 1857
▁su 1858
▁brothers 1859
ct 1860
ank 1861
▁flew 1862
ma 1863
ff 1864
▁ge 1865
antly 1866
▁difference 1867
mer 1868
iding 1869
ft 1870
▁ter 1871
▁weight 1872
▁trans 1873
▁rate 1874
▁familiar 1875
▁doors 1876
▁played 1877
▁luck 1878
▁individual 1879
▁u 1880
▁pa 1881
▁holy 1882
▁aware 1883
ium 1884
▁shame 1885
▁interesting 1886
▁explained 1887
▁dogs 1888
▁distant 1889
▁wore 1890
▁temper 1891
▁similar 1892
▁named 1893
▁direct 1894
▁busy 1895
▁ret 1896
▁amount 1897
▁moments 1898
▁instantly 1899
▁color 1900
ring 1901
▁worked 1902
▁seated 1903
▁fool 1904
▁butter 1905
nded 1906
▁nevertheless 1907
▁measure 1908
▁excellent 1909
ared 1910
▁tongue 1911
▁hearing 1912
▁throw 1913
▁naturally 1914
val 1915
▁takes 1916
▁officer 1917
▁confidence 1918
▁stro 1919
▁indian 1920
▁motion 1921
▁disappeared 1922
▁splendid 1923
▁necessity 1924
▁unknown 1925
▁president 1926
▁names 1927
▁drive 1928
▁cover 1929
▁gods 1930
▁false 1931
▁agreed 1932
▁major 1933
▁keeping 1934
to 1935
ign 1936
ug 1937
▁smoke 1938
▁produced 1939
▁det 1940
▁stri 1941
▁song 1942
▁terror 1943
▁ev 1944
▁crown 1945
▁tur 1946
▁support 1947
▁liberty 1948
▁speed 1949
▁dull 1950
▁cal 1951
aces 1952
▁discover 1953
ising 1954
▁prisoner 1955
▁companions 1956
▁coast 1957
▁wicked 1958
▁spirits 1959
▁powers 1960
▁drove 1961
▁works 1962
▁mighty 1963
▁falling 1964
▁evidence 1965
▁bal 1966
▁yesterday 1967
▁worthy 1968
▁stars 1969
▁particularly 1970
▁maid 1971
▁possibly 1972
▁pointed 1973
▁bare 1974
▁gro 1975
▁cool 1976
▁comm 1977
sh 1978
▁wants 1979
▁sought 1980
▁slight 1981
▁design 1982
▁content 1983
oon 1984
▁otherwise 1985
▁brave 1986
iously 1987
ey 1988
▁terms 1989
▁pot 1990
▁dist 1991
▁band 1992
▁knees 1993
ility 1994
▁officers 1995
ipped 1996
▁super 1997
▁occurred 1998
▁forms 1999
▁finger 2000
▁beast 2001
amed 2002
▁travel 2003
▁tender 2004
▁paused 2005
▁emperor 2006
▁carrying 2007
▁height 2008
▁ceased 2009
kes 2010
▁waters 2011
▁teeth 2012
▁bur 2013
ime 2014
▁required 2015
▁lies 2016
▁labor 2017
▁failed 2018
▁firm 2019
▁shown 2020
▁pair 2021
▁af 2022
▁wa 2023
▁double 2024
ld 2025
ces 2026
▁roof 2027
▁principle 2028
▁example 2029
ave 2030
▁wealth 2031
▁ur 2032
▁upper 2033
▁prison 2034
▁america 2035
ius 2036
▁softly 2037
▁group 2038
▁fruit 2039
▁charles 2040
eness 2041
▁singing 2042
▁possessed 2043
▁gives 2044
▁foreign 2045
▁buy 2046
▁affair 2047
▁shouted 2048
▁milk 2049
▁huge 2050
▁slow 2051
▁james 2052
▁frank 2053
▁affection 2054
▁rooms 2055
▁rocks 2056
▁cases 2057
que 2058
iting 2059
ites 2060
▁pan 2061
▁intended 2062
▁int 2063
oss 2064
▁succeeded 2065
▁satisfaction 2066
▁leading 2067
▁priest 2068
▁freedom 2069
▁farther 2070
▁dance 2071
▁ber 2072
▁majesty 2073
▁drop 2074
▁moral 2075
▁rough 2076
▁ra 2077
▁gently 2078
cy 2079
▁mentioned 2080
▁hearts 2081
▁religion 2082
ann 2083
▁shr 2084
▁pardon 2085
ock 2086
▁rule 2087
▁demanded 2088
▁seventeen 2089
▁regret 2090
pping 2091
▁progress 2092
▁clearly 2093
▁sam 2094
▁presented 2095
▁seventy 2096
▁joined 2097
▁fairy 2098
▁cook 2099
▁bore 2100
▁unto 2101
▁suffering 2102
▁sheep 2103
▁mil 2104
▁key 2105
▁fourth 2106
iz 2107
▁wr 2108
▁thr 2109
▁hidden 2110
▁fully 2111
▁excitement 2112
▁events 2113
▁dreadful 2114
▁advanced 2115
▁pounds 2116
▁conscious 2117
▁awful 2118
▁voices 2119
▁hel 2120
▁calling 2121
▁advice 2122
ze 2123
usion 2124
▁stuff 2125
▁resolved 2126
▁powerful 2127
▁papers 2128
▁stock 2129
▁interested 2130
▁explain 2131
▁birth 2132
▁grief 2133
ining 2134
▁ban 2135
ours 2136
itude 2137
▁rem 2138
▁dec 2139
▁clever 2140
▁excited 2141
▁bu 2142
▁shining 2143
▁regular 2144
▁police 2145
▁fur 2146
▁edward 2147
▁chest 2148
▁considerable 2149
▁sprang 2150
▁cart 2151
▁fields 2152
▁ep 2153
▁conditions 2154
go 2155
▁fox 2156
▁desired 2157
▁served 2158
▁ride 2159
▁arch 2160
aining 2161
▁ships 2162
▁information 2163
▁hur 2164
▁dim 2165
uck 2166
che 2167
▁yard 2168
▁paul 2169
▁needed 2170
▁mention 2171
▁indians 2172
▁sooner 2173
▁pin 2174
▁perceived 2175
▁importance 2176
▁cro 2177
ination 2178
▁share 2179
▁fill 2180
▁custom 2181
▁christian 2182
▁bat 2183
▁store 2184
▁cruel 2185
▁anybody 2186
ob 2187
▁type 2188
▁salt 2189
▁couple 2190
▁absolutely 2191
ution 2192
cer 2193
▁willing 2194
▁imagination 2195
▁devil 2196
▁curiosity 2197
▁col 2198
ich 2199
▁task 2200
▁sunday 2201
▁suffered 2202
▁suff 2203
amp 2204
▁occupied 2205
▁countenance 2206
▁bet 2207
itting 2208
▁gre 2209
▁dawn 2210
▁apparently 2211
ney 2212
hen 2213
▁smith 2214
▁slave 2215
▁completely 2216
▁actually 2217
▁welcome 2218
▁regarded 2219
iest 2220
air 2221
▁enjoy 2222
akes 2223
▁suggested 2224
▁refused 2225
▁gen 2226
▁dying 2227
▁daily 2228
▁ain 2229
ith 2230
ify 2231
ction 2232
▁crime 2233
▁bodies 2234
▁bay 2235
▁alas 2236
▁accident 2237
▁modern 2238
▁acc 2239
▁sigh 2240
▁hence 2241
▁fun 2242
▁fault 2243
▁whenever 2244
▁mort 2245
▁ent 2246
▁elsie 2247
ued 2248
ong 2249
ette 2250
▁rapidly 2251
▁mile 2252
▁hurried 2253
▁hate 2254
itch 2255
ases 2256
▁thanks 2257
▁odd 2258
▁horror 2259
▁stepped 2260
▁professor 2261
▁flesh 2262
▁event 2263
▁cottage 2264
▁cle 2265
▁brain 2266
ret 2267
old 2268
ency 2269
▁pur 2270
▁flight 2271
▁club 2272
▁att 2273
gs 2274
▁driven 2275
▁crossed 2276
▁buck 2277
▁worst 2278
▁supp 2279
▁size 2280
▁points 2281
▁midst 2282
▁entire 2283
ips 2284
▁truly 2285
▁science 2286
▁nay 2287
▁material 2288
▁imm 2289
▁equally 2290
▁education 2291
▁wet 2292
▁trade 2293
▁relations 2294
▁picked 2295
▁earnest 2296
aced 2297
▁taught 2298
▁rushed 2299
▁political 2300
▁nation 2301
▁expressed 2302
▁cab 2303
▁hurry 2304
▁anger 2305
ger 2306
▁dozen 2307
ounded 2308
▁interrupted 2309
▁inn 2310
▁hunting 2311
▁foolish 2312
▁dangerous 2313
ids 2314
ays 2315
▁worn 2316
▁remarkable 2317
▁di 2318
▁deck 2319
▁dam 2320
ru 2321
▁spe 2322
▁meat 2323
▁europe 2324
▁cow 2325
▁bitter 2326
▁vessel 2327
▁mistake 2328
▁members 2329
▁delighted 2330
▁belief 2331
▁asking 2332
rop 2333
▁gradually 2334
▁farm 2335
▁behold 2336
ik 2337
ading 2338
▁sixteen 2339
▁sisters 2340
▁je 2341
▁control 2342
▁murder 2343
▁moreover 2344
▁dreams 2345
artagnan 2346
▁oak 2347
▁enemies 2348
row 2349
aries 2350
▁kindly 2351
▁inquired 2352
▁hotel 2353
▁distinct 2354
▁careful 2355
oy 2356
ined 2357
▁wounded 2358
▁wings 2359
▁suffer 2360
▁relief 2361
▁eleven 2362
ification 2363
▁species 2364
▁german 2365
▁contin 2366
ky 2367
▁physical 2368
▁creatures 2369
iction 2370
▁plenty 2371
▁hide 2372
▁rapid 2373
▁cre 2374
ented 2375
▁saved 2376
▁mu 2377
▁kiss 2378
▁flour 2379
▁bold 2380
sy 2381
▁shoes 2382
▁prof 2383
▁lover 2384
▁hoped 2385
▁glory 2386
▁begun 2387
▁mamma 2388
▁hero 2389
▁frequently 2390
▁et 2391
▁aim 2392
kin 2393
ested 2394
▁sang 2395
▁lab 2396
▁im 2397
▁famous 2398
▁buried 2399
▁approached 2400
ax 2401
▁useful 2402
▁smooth 2403
▁ext 2404
ost 2405
▁proceeded 2406
kins 2407
▁ocean 2408
▁const 2409
▁burn 2410
bing 2411
▁tar 2412
▁message 2413
▁harry 2414
▁grim 2415
stone 2416
▁sy 2417
▁slept 2418
▁poet 2419
▁charming 2420
cher 2421
▁loose 2422
▁gall 2423
▁consciousness 2424
▁lamp 2425
▁hu 2426
▁equ 2427
▁accepted 2428
ford 2429
▁precious 2430
▁playing 2431
▁minds 2432
▁fighting 2433
▁union 2434
▁sol 2435
▁knife 2436
▁evident 2437
▁eager 2438
▁meanwhile 2439
▁hale 2440
▁entrance 2441
▁century 2442
▁capital 2443
wn 2444
ott 2445
▁wondered 2446
▁mus 2447
▁arose 2448
nt 2449
▁thrust 2450
▁stage 2451
▁mount 2452
▁forgive 2453
▁burning 2454
▁ac 2455
▁absence 2456
▁facts 2457
▁capable 2458
▁removed 2459
▁objects 2460
▁lest 2461
▁hut 2462
▁friendship 2463
▁constant 2464
▁closely 2465
aked 2466
▁virtue 2467
▁extraordinary 2468
well 2469
▁level 2470
▁hon 2471
▁desert 2472
▁anyone 2473
▁alice 2474
rest 2475
oured 2476
▁somebody 2477
▁correct 2478
▁bull 2479
my 2480
hood 2481
▁occur 2482
▁basket 2483
▁assured 2484
▁admit 2485
▁stretched 2486
▁plant 2487
▁kissed 2488
▁increased 2489
▁helen 2490
▁everywhere 2491
ries 2492
▁throat 2493
▁strike 2494
▁popular 2495
▁forgot 2496
▁ahead 2497
▁wit 2498
▁wishes 2499
▁trembling 2500
▁kindness 2501
▁eighty 2502
▁sympathy 2503
▁ly 2504
▁larger 2505
▁grandfather 2506
▁ghost 2507
▁contempt 2508
▁clouds 2509
▁queer 2510
▁hind 2511
▁highest 2512
▁cra 2513
▁choose 2514
▁accordingly 2515
uc 2516
illed 2517
iers 2518
▁sil 2519
▁grant 2520
izing 2521
hing 2522
▁wheel 2523
ually 2524
▁suggest 2525
▁pressed 2526
▁miserable 2527
▁begged 2528
ush 2529
▁slaves 2530
▁notes 2531
▁governor 2532
▁confess 2533
▁choice 2534
ict 2535
cing 2536
▁nurse 2537
▁military 2538
▁listening 2539
▁impression 2540
▁compl 2541
▁treat 2542
▁utter 2543
▁treasure 2544
▁innocent 2545
▁ended 2546
ration 2547
▁waves 2548
▁sail 2549
▁proof 2550
▁informed 2551
▁becomes 2552
▁arrival 2553
▁flying 2554
▁excuse 2555
▁divine 2556
bb 2557
▁sell 2558
▁reward 2559
▁marked 2560
▁bought 2561
▁aid 2562
▁acquaintance 2563
▁visible 2564
▁method 2565
▁hadn 2566
▁crying 2567
▁ashamed 2568
ump 2569
▁weary 2570
▁spr 2571
▁lights 2572
▁join 2573
▁hungry 2574
rel 2575
▁stories 2576
▁throughout 2577
▁sounds 2578
▁baron 2579
we 2580
itable 2581
ires 2582
ased 2583
▁somewhere 2584
▁sold 2585
▁mysterious 2586
▁delicate 2587
▁bowed 2588
▁avoid 2589
▁unhappy 2590
▁prop 2591
▁hast 2592
▁deb 2593
ocks 2594
ase 2595
aches 2596
▁impl 2597
▁elizabeth 2598
▁dignity 2599
▁stiff 2600
▁judgment 2601
▁immense 2602
▁advance 2603
ene 2604
▁understanding 2605
▁unable 2606
▁tis 2607
▁temple 2608
▁hollow 2609
▁goods 2610
▁gay 2611
und 2612
ences 2613
▁remains 2614
▁adventure 2615
ower 2616
ote 2617
▁thoroughly 2618
▁project 2619
▁parents 2620
▁lighted 2621
▁bridge 2622
mon 2623
eds 2624
▁safety 2625
▁comfortable 2626
▁admitted 2627
uff 2628
▁rome 2629
▁rid 2630
▁returning 2631
▁represent 2632
▁price 2633
▁organ 2634
▁hers 2635
▁escaped 2636
▁emotion 2637
▁bob 2638
nds 2639
gr 2640
eter 2641
▁pushed 2642
▁plainly 2643
▁intelligence 2644
▁hopes 2645
▁appears 2646
owing 2647
▁wound 2648
▁triumph 2649
▁thunder 2650
▁test 2651
▁seldom 2652
▁ham 2653
▁bearing 2654
▁agree 2655
side 2656
▁meal 2657
▁ir 2658
▁helped 2659
▁stupid 2660
▁intention 2661
▁hint 2662
▁thinks 2663
▁fin 2664
▁david 2665
▁becoming 2666
ulated 2667
▁rope 2668
▁process 2669
▁fellows 2670
▁extreme 2671
▁av 2672
ives 2673
▁ser 2674
▁secure 2675
▁prom 2676
▁eggs 2677
▁address 2678
az 2679
▁solemn 2680
▁bel 2681
▁skill 2682
▁jud 2683
ories 2684
aud 2685
▁whence 2686
▁tied 2687
▁religious 2688
▁prospect 2689
▁friendly 2690
▁pull 2691
▁original 2692
▁extent 2693
▁mood 2694
▁minister 2695
▁eating 2696
▁eagerly 2697
▁colour 2698
▁cheeks 2699
▁bless 2700
▁billy 2701
ville 2702
ference 2703
▁pract 2704
▁patient 2705
▁million 2706
▁jim 2707
▁faithful 2708
▁desp 2709
▁concerned 2710
▁civil 2711
▁arranged 2712
ern 2713
▁wolf 2714
▁whilst 2715
▁waste 2716
▁unl 2717
▁provided 2718
▁practice 2719
▁maiden 2720
▁fairly 2721
▁ease 2722
▁div 2723
▁concerning 2724
▁bride 2725
▁pol 2726
▁hastily 2727
ology 2728
▁yards 2729
▁violent 2730
▁tiny 2731
▁tale 2732
▁instinct 2733
▁features 2734
▁favour 2735
ken 2736
▁swift 2737
▁sons 2738
▁somehow 2739
▁rank 2740
▁hans 2741
▁fled 2742
▁ate 2743
very 2744
used 2745
▁older 2746
▁mental 2747
▁constitution 2748
▁branches 2749
▁accustomed 2750
ount 2751
iter 2752
▁supply 2753
▁substance 2754
▁pink 2755
▁mud 2756
▁constantly 2757
▁claim 2758
▁cabin 2759
▁bishop 2760
▁attend 2761
ron 2762
ame 2763
▁roman 2764
▁gain 2765
▁slipped 2766
▁proportion 2767
▁nodded 2768
▁deeply 2769
fic 2770
aking 2771
▁remark 2772
▁cloth 2773
▁cave 2774
rant 2775
cent 2776
▁ru 2777
▁portion 2778
▁partly 2779
▁log 2780
▁laughter 2781
▁established 2782
ior 2783
ayed 2784
aff 2785
▁wholly 2786
▁spare 2787
▁rust 2788
▁ger 2789
▁consideration 2790
ond 2791
lessly 2792
▁thor 2793
▁silk 2794
▁rub 2795
▁magic 2796
▁lonely 2797
▁joe 2798
▁apart 2799
ables 2800
▁struggle 2801
▁signs 2802
▁press 2803
▁mir 2804
▁merry 2805
▁lion 2806
▁gaze 2807
ull 2808
rated 2809
aken 2810
▁uttered 2811
▁treated 2812
▁rob 2813
▁lack 2814
▁efforts 2815
▁crew 2816
▁christmas 2817
ka 2818
ashed 2819
▁sylvia 2820
▁hell 2821
▁glanced 2822
▁bab 2823
▁savage 2824
▁haste 2825
▁hanging 2826
▁feast 2827
▁bes 2828
▁winds 2829
▁gained 2830
▁fought 2831
▁author 2832
▁tower 2833
▁mercy 2834
▁consent 2835
▁victory 2836
▁dared 2837
▁consequence 2838
▁ce 2839
▁scra 2840
▁report 2841
▁principles 2842
▁pictures 2843
▁patience 2844
▁image 2845
ped 2846
▁shock 2847
▁list 2848
▁conscience 2849
▁troops 2850
▁pred 2851
▁circle 2852
▁brilliant 2853
li 2854
▁setting 2855
▁row 2856
▁employed 2857
▁beard 2858
ulous 2859
▁mont 2860
▁handed 2861
▁feared 2862
▁ant 2863
▁active 2864
▁rolled 2865
▁obtained 2866
▁mod 2867
▁boots 2868
▁app 2869
▁amongst 2870
icted 2871
ibly 2872
▁trail 2873
▁rage 2874
▁proceed 2875
▁jumped 2876
▁forehead 2877
▁distinguished 2878
▁cent 2879
ough 2880
▁tre 2881
▁relation 2882
▁perform 2883
▁anxiety 2884
iles 2885
▁stared 2886
▁sch 2887
▁sank 2888
▁rad 2889
▁murmured 2890
▁match 2891
▁discovery 2892
▁bringing 2893
cept 2894
▁stir 2895
▁gazed 2896
▁circ 2897
▁scr 2898
▁rare 2899
▁bottle 2900
pr 2901
▁superior 2902
▁prov 2903
▁loving 2904
▁approaching 2905
▁sur 2906
▁mel 2907
▁hang 2908
▁var 2909
▁rum 2910
▁nervous 2911
▁guilty 2912
▁exact 2913
▁afford 2914
▁wil 2915
▁swe 2916
▁suspicion 2917
▁subs 2918
▁flung 2919
tle 2920
▁ugly 2921
▁throne 2922
▁theory 2923
▁reasons 2924
▁nineteen 2925
▁managed 2926
▁flag 2927
use 2928
lf 2929
▁robert 2930
▁member 2931
▁favor 2932
▁exist 2933
▁yo 2934
▁wretched 2935
▁intellect 2936
▁bade 2937
▁angel 2938
▁adam 2939
ole 2940
▁thousands 2941
▁showing 2942
▁shone 2943
▁excl 2944
▁admiration 2945
▁addressed 2946
using 2947
▁teach 2948
▁style 2949
▁sacrifice 2950
▁od 2951
▁native 2952
▁farmer 2953
▁dancing 2954
ady 2955
ize 2956
field 2957
▁troubled 2958
▁protect 2959
▁misery 2960
▁spend 2961
▁shadows 2962
▁kings 2963
▁grat 2964
▁des 2965
▁der 2966
▁wisdom 2967
▁kinds 2968
▁interests 2969
▁current 2970
ially 2971
acing 2972
▁wooden 2973
▁trial 2974
▁august 2975
▁unc 2976
▁sensible 2977
▁principal 2978
▁needs 2979
▁build 2980
▁succeed 2981
▁nest 2982
▁hit 2983
▁blame 2984
orm 2985
▁ninety 2986
▁described 2987
▁yield 2988
▁robin 2989
▁proposed 2990
▁demand 2991
▁belong 2992
▁approach 2993
uing 2994
min 2995
ement 2996
ams 2997
▁stands 2998
▁refuse 2999
▁cord 3000
▁cas 3001
▁obst 3002
▁melancholy 3003
▁lucy 3004
▁lit 3005
▁dem 3006
urs 3007
atory 3008
▁unt 3009
▁sav 3010
▁sacred 3011
▁pause 3012
▁novel 3013
▁credit 3014
▁cam 3015
▁worship 3016
▁utterly 3017
▁san 3018
▁resumed 3019
▁mounted 3020
▁energy 3021
▁wing 3022
▁rat 3023
▁produce 3024
▁origin 3025
▁national 3026
▁extremely 3027
▁everyone 3028
▁require 3029
▁manners 3030
▁explanation 3031
▁dor 3032
▁armed 3033
ral 3034
arily 3035
▁useless 3036
▁request 3037
▁household 3038
▁departure 3039
▁appe 3040
▁solid 3041
▁recognized 3042
▁mystery 3043
▁illust 3044
▁highly 3045
▁follows 3046
▁delightful 3047
▁chosen 3048
▁british 3049
nder 3050
▁sex 3051
▁joseph 3052
▁exercise 3053
osing 3054
▁slightly 3055
▁keen 3056
▁haw 3057
▁distress 3058
oted 3059
iment 3060
▁ward 3061
▁pipe 3062
▁philip 3063
▁mut 3064
▁council 3065
▁cont 3066
▁vision 3067
▁forces 3068
▁flood 3069
▁bath 3070
▁agreeable 3071
ulation 3072
ude 3073
▁rush 3074
▁knights 3075
▁intense 3076
▁ends 3077
▁dwell 3078
▁directed 3079
▁concern 3080
up 3081
▁pers 3082
▁observe 3083
▁jesus 3084
▁figures 3085
▁bas 3086
▁torn 3087
▁sighed 3088
▁sentence 3089
▁rested 3090
▁hor 3091
▁fix 3092
▁dun 3093
▁continue 3094
▁centre 3095
the 3096
▁profound 3097
▁pop 3098
▁jer 3099
▁catherine 3100
▁aloud 3101
▁affected 3102
▁singular 3103
▁shaking 3104
▁riding 3105
▁gown 3106
▁exc 3107
▁composed 3108
▁accompanied 3109
ought 3110
▁sentiment 3111
▁recovered 3112
▁mistaken 3113
▁horrible 3114
▁confusion 3115
▁bye 3116
▁brow 3117
▁assistance 3118
ancy 3119
▁wake 3120
▁swept 3121
▁straw 3122
▁previous 3123
▁poison 3124
▁louis 3125
▁fierce 3126
▁brief 3127
ask 3128
▁ven 3129
▁surrounded 3130
▁shade 3131
▁cheerful 3132
▁bon 3133
▁ast 3134
▁absurd 3135
▁ere 3136
▁connection 3137
aded 3138
▁younger 3139
▁wedding 3140
▁unp 3141
▁pill 3142
▁magnificent 3143
▁immediate 3144
▁hol 3145
▁dar 3146
▁convinced 3147
▁cheek 3148
▁attitude 3149
ability 3150
▁subjects 3151
▁genius 3152
ki 3153
itted 3154
▁locked 3155
▁inclined 3156
▁eng 3157
▁bark 3158
▁sho 3159
▁roll 3160
▁market 3161
▁leaning 3162
▁duties 3163
▁clock 3164
▁aust 3165
ten 3166
ett 3167
▁unfortunate 3168
▁guide 3169
▁college 3170
▁breaking 3171
▁banks 3172
▁adm 3173
▁southern 3174
▁senses 3175
▁revolution 3176
▁fleet 3177
▁fil 3178
▁diamond 3179
▁countess 3180
board 3181
aling 3182
ales 3183
▁sufficiently 3184
▁steam 3185
▁stayed 3186
▁sha 3187
▁sees 3188
▁midnight 3189
▁handkerchief 3190
▁awake 3191
aunt 3192
▁ros 3193
▁praise 3194
▁loves 3195
▁connected 3196
▁bosom 3197
bly 3198
▁striking 3199
▁souls 3200
▁plans 3201
▁pierre 3202
▁permitted 3203
▁guns 3204
▁frame 3205
utes 3206
orted 3207
ister 3208
iful 3209
com 3210
▁utmost 3211
▁tight 3212
▁rib 3213
▁reality 3214
▁reader 3215
▁prayer 3216
▁plate 3217
▁faced 3218
▁devoted 3219
▁coll 3220
win 3221
iced 3222
▁wash 3223
▁ruin 3224
▁gift 3225
▁collect 3226
▁retreat 3227
▁page 3228
▁increase 3229
▁fright 3230
▁chap 3231
▁argument 3232
oe 3233
most 3234
▁sugar 3235
▁sounded 3236
▁parties 3237
▁parliament 3238
▁merchant 3239
▁hid 3240
ix 3241
▁wondering 3242
▁sleeping 3243
▁nights 3244
▁machine 3245
▁loc 3246
▁cities 3247
▁astonishment 3248
▁announced 3249
▁tor 3250
▁stern 3251
▁park 3252
▁inhabitants 3253
▁dig 3254
▁delay 3255
▁chat 3256
▁aff 3257
get 3258
bury 3259
aming 3260
▁mart 3261
▁lock 3262
▁conclusion 3263
hered 3264
der 3265
acks 3266
▁tit 3267
▁pi 3268
▁guests 3269
▁gets 3270
▁divided 3271
▁destroyed 3272
▁appointed 3273
usted 3274
▁render 3275
▁commanded 3276
▁coffee 3277
▁acquainted 3278
unk 3279
ular 3280
▁raise 3281
▁ignorant 3282
▁dread 3283
▁doubtless 3284
▁degrees 3285
alk 3286
▁tad 3287
▁prefer 3288
▁guest 3289
▁darling 3290
▁craft 3291
▁crack 3292
▁beheld 3293
▁alarm 3294
▁afterward 3295
▁absolute 3296
▁soil 3297
▁practical 3298
▁folk 3299
sey 3300
liness 3301
asp 3302
▁steep 3303
▁sharply 3304
▁risk 3305
▁contract 3306
▁concluded 3307
rer 3308
ipp 3309
▁env 3310
▁causes 3311
ison 3312
iff 3313
▁quality 3314
▁nonsense 3315
▁mag 3316
▁katy 3317
▁gloom 3318
inate 3319
▁retired 3320
▁muttered 3321
▁mc 3322
ple 3323
▁witness 3324
▁scorn 3325
▁reflection 3326
▁quarters 3327
▁mid 3328
▁earl 3329
▁contained 3330
▁bor 3331
umb 3332
rs 3333
oes 3334
iation 3335
gn 3336
▁rev 3337
▁leaf 3338
▁district 3339
gh 3340
▁realized 3341
▁lat 3342
▁june 3343
▁chin 3344
▁belonged 3345
▁assure 3346
▁julia 3347
▁gi 3348
▁charm 3349
▁appro 3350
▁vis 3351
▁shake 3352
▁intellectual 3353
▁dra 3354
▁bones 3355
rey 3356
mond 3357
mit 3358
▁wave 3359
▁universal 3360
▁punishment 3361
▁overt 3362
▁enc 3363
▁elect 3364
▁atmosphere 3365
gar 3366
▁stat 3367
▁local 3368
▁jew 3369
▁invited 3370
▁hay 3371
▁extended 3372
▁check 3373
▁ages 3374
ider 3375
hem 3376
▁troubles 3377
▁throwing 3378
▁rendered 3379
▁properly 3380
▁numerous 3381
▁job 3382
▁hom 3383
ival 3384
▁severe 3385
▁maybe 3386
▁incl 3387
▁firmly 3388
▁descended 3389
▁crept 3390
▁uniform 3391
▁successful 3392
▁smell 3393
▁shows 3394
▁separate 3395
▁ox 3396
▁leaned 3397
▁entering 3398
▁drunk 3399
▁difficulties 3400
▁deserted 3401
▁candle 3402
▁anywhere 3403
erv 3404
▁wal 3405
▁track 3406
▁rail 3407
▁protection 3408
▁gas 3409
▁enormous 3410
▁destroy 3411
▁unusual 3412
▁tro 3413
▁thomas 3414
▁sus 3415
▁movements 3416
▁introduced 3417
▁elder 3418
▁astonished 3419
aps 3420
▁wept 3421
▁unb 3422
▁sore 3423
▁range 3424
▁rang 3425
▁base 3426
uss 3427
lla 3428
aker 3429
▁vic 3430
▁nations 3431
▁leisure 3432
▁ideal 3433
▁fatal 3434
▁bushes 3435
▁andrew 3436
vent 3437
ds 3438
ature 3439
▁visited 3440
▁violence 3441
▁lately 3442
▁infinite 3443
▁female 3444
▁affect 3445
cked 3446
▁sorts 3447
▁official 3448
▁nearest 3449
▁mas 3450
▁lap 3451
▁humble 3452
▁burned 3453
aled 3454
▁wherever 3455
▁term 3456
▁smo 3457
▁sed 3458
▁ours 3459
ouse 3460
▁startled 3461
▁mur 3462
▁gates 3463
▁fourteen 3464
▁actions 3465
▁western 3466
▁tear 3467
▁stronger 3468
▁stout 3469
▁sensation 3470
▁rude 3471
▁learning 3472
▁flash 3473
▁depend 3474
▁climbed 3475
▁bloom 3476
rence 3477
ners 3478
llow 3479
house 3480
aster 3481
▁phil 3482
▁lawyer 3483
pir 3484
la 3485
▁recollect 3486
▁rays 3487
▁numbers 3488
▁northern 3489
▁isabel 3490
▁final 3491
▁scattered 3492
▁rent 3493
▁ralph 3494
▁madam 3495
▁compelled 3496
▁changes 3497
▁card 3498
rog 3499
ailed 3500
▁title 3501
▁thread 3502
▁mankind 3503
▁gloomy 3504
▁coo 3505
▁citizens 3506
▁cattle 3507
▁tax 3508
▁richard 3509
▁painful 3510
▁likewise 3511
▁habits 3512
▁apartment 3513
oms 3514
▁vanished 3515
▁plants 3516
▁ken 3517
▁inform 3518
▁hunger 3519
▁cared 3520
teenth 3521
otted 3522
idd 3523
▁shad 3524
▁reckon 3525
▁ke 3526
▁horn 3527
▁hearted 3528
▁gratitude 3529
▁giant 3530
▁details 3531
▁carpet 3532
▁bro 3533
▁actual 3534
▁accomplished 3535
aint 3536
▁slightest 3537
▁product 3538
▁ob 3539
▁exert 3540
▁effects 3541
▁diana 3542
▁badly 3543
rim 3544
rie 3545
lest 3546
ell 3547
▁weakness 3548
▁revol 3549
▁prisoners 3550
▁painted 3551
▁obtain 3552
▁mode 3553
▁manage 3554
▁kate 3555
▁grasp 3556
▁fre 3557
▁fears 3558
iot 3559
▁warning 3560
▁veget 3561
▁trip 3562
▁supreme 3563
▁mess 3564
▁insult 3565
▁empire 3566
▁consequently 3567
▁aspect 3568
▁abroad 3569
yl 3570
ilt 3571
▁ut 3572
▁staring 3573
▁source 3574
▁resolution 3575
▁oil 3576
▁lieutenant 3577
▁labour 3578
▁irish 3579
▁francis 3580
▁eaten 3581
▁description 3582
▁conceal 3583
▁cher 3584
▁beaten 3585
icated 3586
iance 3587
ests 3588
den 3589
amb 3590
▁signal 3591
▁results 3592
▁knocked 3593
▁gather 3594
▁endeav 3595
▁dest 3596
▁countries 3597
▁committed 3598
▁attended 3599
quet 3600
oun 3601
aine 3602
▁sunshine 3603
▁spanish 3604
▁oper 3605
▁jean 3606
▁instrument 3607
▁hitherto 3608
▁grandmother 3609
▁fifth 3610
rous 3611
ois 3612
arer 3613
▁marilla 3614
▁lands 3615
▁frag 3616
▁dan 3617
▁bre 3618
▁anna 3619
▁widow 3620
▁string 3621
▁steel 3622
▁steady 3623
▁spiritual 3624
▁smaller 3625
▁ruth 3626
▁ray 3627
▁purple 3628
▁poured 3629
▁penet 3630
▁mild 3631
▁interview 3632
▁helpless 3633
▁emb 3634
▁driving 3635
ult 3636
ulate 3637
ades 3638
▁reflected 3639
▁pursued 3640
▁occasions 3641
▁neat 3642
▁leader 3643
▁lamb 3644
▁ga 3645
▁folks 3646
▁crowded 3647
room 3648
itor 3649
acious 3650
▁shelter 3651
▁settle 3652
▁reve 3653
▁qualities 3654
▁occasionally 3655
▁hesitated 3656
▁hastened 3657
▁expl 3658
▁exception 3659
▁examined 3660
▁commun 3661
▁ang 3662
inated 3663
▁shell 3664
▁purs 3665
▁furniture 3666
▁ens 3667
▁dom 3668
▁disposition 3669
▁departed 3670
▁counter 3671
▁bus 3672
uses 3673
bert 3674
ares 3675
▁voyage 3676
▁vague 3677
▁tent 3678
▁squire 3679
▁score 3680
▁safely 3681
▁ol 3682
▁observation 3683
▁guards 3684
▁execution 3685
▁comb 3686
ads 3687
▁witch 3688
▁tells 3689
▁oliver 3690
▁inex 3691
▁honey 3692
▁florence 3693
▁es 3694
▁borne 3695
▁beloved 3696
▁aud 3697
▁attached 3698
ressed 3699
▁wandered 3700
▁tristram 3701
▁hunt 3702
▁fancied 3703
▁excess 3704
▁egypt 3705
▁destruction 3706
▁bid 3707
itation 3708
app 3709
▁valuable 3710
▁unm 3711
▁trick 3712
▁sim 3713
▁scream 3714
▁quantity 3715
▁parted 3716
▁indul 3717
▁goodness 3718
▁cries 3719
▁created 3720
▁continually 3721
▁conc 3722
▁alike 3723
ones 3724
▁venture 3725
▁record 3726
▁flame 3727
▁domestic 3728
▁desk 3729
▁barn 3730
vering 3731
icks 3732
▁walter 3733
▁thornton 3734
▁polly 3735
▁operation 3736
▁disposed 3737
verse 3738
ee 3739
▁employ 3740
▁dri 3741
▁dearest 3742
yn 3743
▁seriously 3744
▁resist 3745
▁leather 3746
▁heavens 3747
▁happens 3748
▁forever 3749
▁amid 3750
ses 3751
bon 3752
ators 3753
▁rom 3754
▁repeat 3755
▁powder 3756
▁masters 3757
▁library 3758
▁enjoyed 3759
▁chain 3760
wick 3761
more 3762
lls 3763
ep 3764
ensive 3765
▁whisper 3766
▁steadily 3767
▁silly 3768
▁separated 3769
▁piano 3770
▁obey 3771
▁mouse 3772
▁knock 3773
▁disturbed 3774
▁depart 3775
▁cou 3776
▁cho 3777
▁accord 3778
zz 3779
ara 3780
▁ventured 3781
▁sne 3782
▁ned 3783
▁drank 3784
▁correspond 3785
iling 3786
▁suspect 3787
▁seeking 3788
▁rachel 3789
▁meantime 3790
▁failure 3791
▁expedition 3792
▁eternal 3793
wards 3794
ood 3795
ico 3796
▁washington 3797
▁mission 3798
▁incident 3799
▁imagined 3800
▁electric 3801
▁cock 3802
▁assist 3803
otes 3804
gl 3805
fulness 3806
con 3807
aks 3808
▁readily 3809
▁lincoln 3810
▁emer 3811
▁carol 3812
▁calls 3813
▁acts 3814
▁tones 3815
▁staff 3816
▁someone 3817
▁poverty 3818
▁pine 3819
▁pace 3820
▁op 3821
▁monte 3822
▁islands 3823
▁inj 3824
▁heavily 3825
▁hated 3826
▁audience 3827
▁insisted 3828
▁hundreds 3829
▁exhib 3830
▁entreat 3831
▁beasts 3832
▁assumed 3833
ool 3834
lessness 3835
ission 3836
isc 3837
inity 3838
iable 3839
head 3840
ames 3841
▁sovereign 3842
▁remaining 3843
▁protest 3844
▁jar 3845
▁flo 3846
▁consist 3847
▁chiefly 3848
▁beings 3849
urn 3850
so 3851
▁shed 3852
▁opp 3853
▁neighbour 3854
▁ing 3855
▁forg 3856
▁eyed 3857
▁development 3858
▁cop 3859
ract 3860
ha 3861
dd 3862
▁wid 3863
▁saddle 3864
▁related 3865
▁region 3866
▁granted 3867
lo 3868
▁generous 3869
▁fever 3870
▁disappointed 3871
▁cheer 3872
▁applied 3873
icked 3874
▁strongly 3875
▁sailor 3876
▁probable 3877
▁hy 3878
▁humanity 3879
▁heap 3880
▁frown 3881
▁dressing 3882
▁desperate 3883
▁describe 3884
▁daughters 3885
▁counsel 3886
▁concealed 3887
zy 3888
ibility 3889
▁trace 3890
▁simon 3891
▁outl 3892
▁manifest 3893
▁mac 3894
▁infl 3895
▁id 3896
▁classes 3897
itated 3898
ension 3899
arch 3900
▁virginia 3901
▁heed 3902
▁greek 3903
▁fastened 3904
▁families 3905
▁dwarf 3906
▁dragged 3907
▁burden 3908
▁boats 3909
▁attempted 3910
rig 3911
rate 3912
▁shrie 3913
▁shoot 3914
▁rap 3915
▁prize 3916
▁os 3917
▁murderer 3918
▁lightning 3919
▁jen 3920
▁coloured 3921
▁circumstance 3922
sel 3923
ora 3924
like 3925
▁trot 3926
▁teaching 3927
▁services 3928
▁rights 3929
▁reaching 3930
▁hen 3931
▁drinking 3932
▁disturb 3933
▁din 3934
▁delivered 3935
▁abandoned 3936
ache 3937
▁whit 3938
▁recall 3939
▁motive 3940
▁lift 3941
▁impro 3942
▁headed 3943
▁farewell 3944
▁exhausted 3945
▁emily 3946
▁dirty 3947
▁directions 3948
▁definite 3949
▁colored 3950
▁apple 3951
fl 3952
▁stuck 3953
▁sadly 3954
▁pool 3955
▁permit 3956
▁perceive 3957
▁noon 3958
▁leaped 3959
▁gent 3960
▁fro 3961
▁eve 3962
▁estate 3963
▁chose 3964
ola 3965
cast 3966
▁unw 3967
▁towns 3968
▁sailed 3969
▁pony 3970
▁disappointment 3971
▁dining 3972
uit 3973
inations 3974
▁views 3975
▁toby 3976
▁suspected 3977
▁strangers 3978
▁shouldn 3979
▁italian 3980
▁fed 3981
▁cutting 3982
▁cunning 3983
▁attrib 3984
zed 3985
oring 3986
asm 3987
▁stra 3988
▁series 3989
▁prim 3990
▁freely 3991
▁essential 3992
▁enthusiasm 3993
▁da 3994
umbling 3995
umble 3996
rent 3997
cri 3998
▁vo 3999
▁tomb 4000
▁quarrel 4001
▁platform 4002
▁mortal 4003
het 4004
ense 4005
▁rear 4006
▁overcome 4007
▁newspaper 4008
▁mock 4009
▁growth 4010
▁finds 4011
▁deliver 4012
▁chris 4013
▁acted 4014
▁acqu 4015
ways 4016
ume 4017
for 4018
ament 4019
▁weeping 4020
▁turns 4021
▁ton 4022
▁sen 4023
▁outer 4024
▁dragon 4025
▁article 4026
▁wearing 4027
▁washed 4028
▁wag 4029
▁undert 4030
▁shy 4031
▁rules 4032
▁por 4033
▁opposition 4034
▁oath 4035
▁notion 4036
▁nicholas 4037
▁lightly 4038
▁histor 4039
▁gle 4040
▁gazing 4041
▁bitterly 4042
ship 4043
lt 4044
iveness 4045
ev 4046
apping 4047
aged 4048
acles 4049
▁sec 4050
▁marble 4051
▁knee 4052
▁experienced 4053
▁decor 4054
▁clay 4055
▁chuck 4056
▁brig 4057
▁belongs 4058
pend 4059
▁wandering 4060
▁timid 4061
▁som 4062
▁slip 4063
▁silently 4064
▁non 4065
▁glorious 4066
▁endure 4067
▁contrib 4068
▁consult 4069
▁bush 4070
▁branch 4071
▁apt 4072
work 4073
uded 4074
osed 4075
▁variety 4076
▁trap 4077
▁rud 4078
▁pockets 4079
▁owner 4080
▁hiding 4081
▁beating 4082
gged 4083
day 4084
▁shortly 4085
▁selfish 4086
▁pound 4087
▁flut 4088
▁falls 4089
▁disease 4090
▁desires 4091
▁constit 4092
▁appeal 4093
▁apparent 4094
ression 4095
▁terri 4096
▁roses 4097
▁reputation 4098
▁profess 4099
▁plat 4100
▁ped 4101
▁gal 4102
▁dish 4103
ica 4104
▁volume 4105
▁trim 4106
▁trembled 4107
▁thither 4108
▁strain 4109
▁slain 4110
▁objection 4111
▁jun 4112
▁indifferent 4113
▁grateful 4114
▁frequent 4115
▁fetch 4116
▁entertain 4117
▁boast 4118
ashing 4119
▁whirl 4120
▁treatment 4121
▁tin 4122
▁tick 4123
▁thine 4124
▁shield 4125
▁recon 4126
▁mixed 4127
▁mingled 4128
▁metal 4129
▁luc 4130
▁frog 4131
▁fearful 4132
▁depths 4133
▁deny 4134
▁decl 4135
▁ble 4136
▁beach 4137
▁ambition 4138
asing 4139
▁wire 4140
▁swiftly 4141
▁rolling 4142
▁represented 4143
▁misfortune 4144
▁mischief 4145
▁invent 4146
▁formerly 4147
▁ali 4148
osure 4149
▁threatened 4150
▁suggestion 4151
▁sens 4152
▁lesson 4153
▁italy 4154
ram 4155
▁waist 4156
▁vessels 4157
▁stud 4158
▁soot 4159
▁pointing 4160
▁pig 4161
▁invitation 4162
▁hospital 4163
▁fired 4164
ree 4165
▁unpleasant 4166
▁unconscious 4167
▁smoking 4168
▁rod 4169
▁monarch 4170
▁lod 4171
▁horizon 4172
▁herbert 4173
▁barbar 4174
utions 4175
▁writer 4176
▁toler 4177
▁thirteen 4178
▁poetry 4179
▁millions 4180
▁lunch 4181
▁inner 4182
▁fasc 4183
▁effic 4184
▁diss 4185
▁discuss 4186
ums 4187
▁scarce 4188
▁pretended 4189
▁philosophy 4190
▁monster 4191
▁inst 4192
▁gri 4193
▁fury 4194
▁closer 4195
▁cats 4196
▁bernard 4197
▁benefit 4198
set 4199
ired 4200
imate 4201
ild 4202
▁volunt 4203
▁sheet 4204
▁reco 4205
▁male 4206
▁intr 4207
▁intimate 4208
▁grad 4209
▁furnished 4210
▁descend 4211
▁articles 4212
vert 4213
ugg 4214
▁tim 4215
▁sultan 4216
▁procl 4217
▁precisely 4218
▁nut 4219
▁neighbourhood 4220
▁ignorance 4221
▁grie 4222
▁fav 4223
vel 4224
▁wishing 4225
▁unexpected 4226
▁starting 4227
▁stable 4228
▁nan 4229
▁maxim 4230
▁majority 4231
▁jealous 4232
▁gesture 4233
▁confident 4234
▁coal 4235
▁bench 4236
▁acquired 4237
iet 4238
att 4239
▁warn 4240
▁touching 4241
▁reduced 4242
▁purposes 4243
▁mirror 4244
▁earlier 4245
▁cristo 4246
▁confused 4247
umbled 4248
orous 4249
▁smart 4250
▁priests 4251
▁imper 4252
▁hatred 4253
▁grin 4254
▁defe 4255
▁date 4256
▁conviction 4257
▁community 4258
▁commission 4259
▁china 4260
▁beds 4261
▁autumn 4262
▁whist 4263
▁wagon 4264
▁vivid 4265
▁thence 4266
▁scientific 4267
▁roads 4268
▁johnson 4269
▁heels 4270
▁fle 4271
▁committee 4272
▁ceremony 4273
▁button 4274
▁adj 4275
wing 4276
▁sway 4277
▁ot 4278
▁opinions 4279
▁net 4280
▁lament 4281
▁drift 4282
▁contrast 4283
▁conce 4284
▁cheap 4285
ifying 4286
▁uncertain 4287
▁tow 4288
▁seas 4289
▁commander 4290
▁characters 4291
▁apply 4292
▁absent 4293
with 4294
▁teacher 4295
▁swung 4296
▁swear 4297
▁stirred 4298
▁scheme 4299
▁ruff 4300
▁ren 4301
▁psych 4302
▁notwithstanding 4303
▁missed 4304
▁discussion 4305
▁cell 4306
ication 4307
▁worry 4308
▁visitor 4309
▁victim 4310
▁reform 4311
▁nap 4312
▁naked 4313
▁motionless 4314
▁len 4315
▁harsh 4316
▁deed 4317
▁brush 4318
▁albert 4319
acity 4320
▁yonder 4321
▁victor 4322
▁slender 4323
▁shooting 4324
▁problem 4325
▁pole 4326
▁pier 4327
▁marian 4328
▁govern 4329
▁feed 4330
▁decision 4331
str 4332
irt 4333
▁profession 4334
▁prey 4335
▁persist 4336
▁marks 4337
▁lily 4338
▁feeble 4339
▁feather 4340
▁compet 4341
▁bud 4342
▁brand 4343
nes 4344
illing 4345
▁urged 4346
▁trib 4347
▁specul 4348
▁rus 4349
▁possibility 4350
▁lust 4351
▁inch 4352
▁francs 4353
▁declare 4354
▁cream 4355
▁bert 4356
atch 4357
▁susan 4358
▁secretary 4359
▁regiment 4360
▁pressure 4361
▁peasant 4362
▁noted 4363
▁merc 4364
▁mast 4365
▁fires 4366
▁fest 4367
▁cheese 4368
▁admire 4369
▁vent 4370
▁tun 4371
▁reign 4372
▁multitude 4373
▁magn 4374
▁grounds 4375
▁fitted 4376
▁experiment 4377
▁distinctly 4378
▁compared 4379
▁cliff 4380
▁block 4381
▁activity 4382
nel 4383
fall 4384
ached 4385
▁wrapped 4386
▁veil 4387
▁trunk 4388
▁tide 4389
▁scar 4390
▁marsh 4391
▁leap 4392
▁independent 4393
▁ign 4394
▁fal 4395
▁dale 4396
▁considering 4397
▁cetera 4398
▁boil 4399
▁absorbed 4400
worth 4401
ker 4402
▁tenderness 4403
▁sending 4404
▁provisions 4405
▁print 4406
▁performed 4407
▁owing 4408
▁marvel 4409
▁landed 4410
▁gardens 4411
▁earnestly 4412
▁disgrace 4413
▁deeper 4414
rew 4415
ples 4416
ih 4417
igh 4418
▁une 4419
▁puff 4420
▁porthos 4421
▁jewels 4422
▁interpret 4423
▁duck 4424
▁clerk 4425
sters 4426
sing 4427
iring 4428
cial 4429
▁visitors 4430
▁tub 4431
▁statement 4432
▁pall 4433
▁necessarily 4434
▁blessed 4435
▁ay 4436
▁appreci 4437
▁agony 4438
▁wrath 4439
▁scotland 4440
▁sacrific 4441
▁nois 4442
▁idle 4443
▁guessed 4444
▁gravely 4445
▁fred 4446
▁fashioned 4447
▁exceed 4448
▁duchess 4449
▁coward 4450
▁contro 4451
▁brid 4452
▁beth 4453
oud 4454
ols 4455
ino 4456
ille 4457
▁wives 4458
▁wheels 4459
▁viol 4460
▁stomach 4461
▁respectable 4462
▁repent 4463
▁reflect 4464
▁oblig 4465
▁medicine 4466
▁interrupt 4467
▁element 4468
▁arrive 4469
inkled 4470
hel 4471
af 4472
▁threat 4473
▁remind 4474
▁rabbit 4475
▁cloak 4476
▁climb 4477
isted 4478
▁wax 4479
▁stole 4480
▁persuaded 4481
▁negro 4482
▁modest 4483
▁fortunate 4484
▁exec 4485
▁drops 4486
▁doub 4487
▁champ 4488
leness 4489
▁whither 4490
▁revenge 4491
▁raising 4492
▁puzzled 4493
▁paint 4494
▁moonlight 4495
▁insist 4496
▁inches 4497
▁heartily 4498
▁flashed 4499
▁collar 4500
▁central 4501
▁brook 4502
▁begins 4503
▁arg 4504
gu 4505
erson 4506
acle 4507
▁sink 4508
▁pursuit 4509
▁ling 4510
▁lean 4511
▁happily 4512
▁flow 4513
▁feels 4514
▁eastern 4515
▁decide 4516
▁chase 4517
▁buildings 4518
▁amb 4519
▁alter 4520
rels 4521
eless 4522
dle 4523
ata 4524
▁solitary 4525
▁remote 4526
▁precip 4527
▁pepper 4528
▁limbs 4529
▁breed 4530
▁belonging 4531
▁acting 4532
▁abandon 4533
right 4534
ould 4535
ason 4536
▁uneasy 4537
▁trad 4538
▁peril 4539
▁obeyed 4540
▁losing 4541
▁lively 4542
▁linen 4543
▁damp 4544
▁childhood 4545
▁bun 4546
▁associ 4547
▁ash 4548
lers 4549
ili 4550
▁scenes 4551
▁permission 4552
▁marched 4553
▁dutch 4554
▁distinction 4555
▁craw 4556
▁convers 4557
▁containing 4558
▁blew 4559
▁aged 4560
ific 4561
▁upstairs 4562
▁regarding 4563
▁preserved 4564
▁passions 4565
▁germany 4566
▁folly 4567
▁depos 4568
▁contents 4569
▁cease 4570
▁capacity 4571
vered 4572
anging 4573
▁vengeance 4574
▁ty 4575
▁shouting 4576
▁sale 4577
▁russian 4578
▁reasonable 4579
▁literature 4580
▁kit 4581
▁jest 4582
▁intelligent 4583
▁inquiry 4584
▁hal 4585
▁esc 4586
▁egg 4587
▁coach 4588
▁breeze 4589
▁bedroom 4590
▁ashes 4591
▁anyhow 4592
oop 4593
oned 4594
▁whereas 4595
▁warriors 4596
▁thirst 4597
▁surv 4598
▁saturday 4599
▁mars 4600
▁awkward 4601
▁attract 4602
rib 4603
osition 4604
key 4605
▁supported 4606
▁pulling 4607
▁princes 4608
▁prepare 4609
▁prayers 4610
▁moss 4611
▁messenger 4612
▁impulse 4613
▁gathering 4614
▁contented 4615
▁comrades 4616
▁cake 4617
▁bind 4618
▁bars 4619
▁altern 4620
▁abruptly 4621
mes 4622
ailing 4623
▁wanting 4624
▁tip 4625
▁strangely 4626
▁shout 4627
▁rivers 4628
▁reference 4629
▁pains 4630
▁norman 4631
▁homes 4632
▁finish 4633
▁danced 4634
▁career 4635
▁cand 4636
▁awoke 4637
oses 4638
ae 4639
▁stopping 4640
▁shel 4641
▁preparing 4642
▁plunged 4643
▁passengers 4644
▁nic 4645
▁faded 4646
▁drag 4647
▁developed 4648
▁crossing 4649
▁brings 4650
▁anyway 4651
▁agent 4652
ule 4653
off 4654
ishes 4655
enced 4656
▁slavery 4657
▁sire 4658
▁revealed 4659
▁rav 4660
▁measures 4661
▁louise 4662
▁influ 4663
▁gallery 4664
▁external 4665
▁engagement 4666
▁confeder 4667
▁clut 4668
▁attacked 4669
rences 4670
▁vol 4671
▁ult 4672
▁tour 4673
▁sport 4674
▁shirt 4675
▁reproach 4676
▁lane 4677
▁jeff 4678
▁fence 4679
▁elements 4680
▁conflict 4681
▁bol 4682
▁arab 4683
▁appetite 4684
▁alyosha 4685
uch 4686
ried 4687
igned 4688
ado 4689
▁weapons 4690
▁waved 4691
▁theatre 4692
▁songs 4693
▁pun 4694
▁presents 4695
▁owe 4696
▁kitty 4697
▁ident 4698
▁gallop 4699
▁floating 4700
▁domin 4701
▁dimin 4702
▁condemned 4703
▁chairs 4704
▁blank 4705
▁arrow 4706
zing 4707
esty 4708
▁using 4709
▁twilight 4710
▁tap 4711
▁spo 4712
▁sailors 4713
▁receiving 4714
▁prompt 4715
▁pile 4716
▁ireland 4717
▁india 4718
▁handle 4719
▁funny 4720
▁favorite 4721
▁expense 4722
▁display 4723
▁dism 4724
▁congress 4725
▁calmly 4726
cess 4727
▁spain 4728
▁occup 4729
▁mechan 4730
▁lofty 4731
▁hunter 4732
▁gladly 4733
▁exceedingly 4734
▁dreamed 4735
▁doorway 4736
▁daylight 4737
▁concent 4738
▁breathing 4739
▁blessing 4740
oration 4741
▁tremendous 4742
▁today 4743
▁tang 4744
▁tales 4745
▁subm 4746
▁stroke 4747
▁relieved 4748
▁refuge 4749
▁pour 4750
▁napoleon 4751
▁examination 4752
▁attracted 4753
light 4754
inth 4755
iments 4756
illy 4757
ante 4758
▁scarlet 4759
▁mex 4760
▁lar 4761
▁keeps 4762
▁industry 4763
▁hither 4764
▁gifts 4765
▁garments 4766
▁emotions 4767
▁capt 4768
mo 4769
ision 4770
apped 4771
▁wilt 4772
▁weep 4773
▁thanked 4774
▁stead 4775
▁shir 4776
▁resting 4777
▁marguerite 4778
▁indust 4779
▁folded 4780
▁exchange 4781
▁depth 4782
▁concl 4783
▁cleared 4784
▁arrangement 4785
▁ara 4786
▁amazement 4787
▁adopted 4788
pic 4789
attered 4790
▁virtues 4791
▁unin 4792
▁swim 4793
▁stated 4794
▁roused 4795
▁reluct 4796
▁rag 4797
▁natasha 4798
▁nat 4799
▁longed 4800
▁indignation 4801
▁increasing 4802
▁genuine 4803
▁gallant 4804
▁feathers 4805
▁diamonds 4806
▁county 4807
▁catholic 4808
▁bee 4809
▁artist 4810
▁amaz 4811
umed 4812
place 4813
ological 4814
ctions 4815
▁rifle 4816
▁remarks 4817
▁quoth 4818
▁ornament 4819
▁murmur 4820
▁laying 4821
▁irr 4822
▁gracious 4823
▁expecting 4824
▁ded 4825
▁commenced 4826
▁cardinal 4827
▁burnt 4828
▁alarmed 4829
ada 4830
▁whip 4831
▁tie 4832
▁summ 4833
▁solic 4834
▁sher 4835
▁error 4836
▁dur 4837
▁demonstr 4838
▁contact 4839
uth 4840
inkle 4841
▁tranqu 4842
▁struggling 4843
▁shakespeare 4844
▁satisfy 4845
▁physician 4846
▁neighbors 4847
▁masses 4848
▁lords 4849
▁cub 4850
▁communication 4851
▁sole 4852
▁shepherd 4853
▁penny 4854
▁mourn 4855
▁mix 4856
▁lovers 4857
▁longing 4858
▁haz 4859
▁fog 4860
▁exposed 4861
▁doth 4862
▁crimson 4863
▁civilization 4864
▁addition 4865
uously 4866
under 4867
met 4868
ange 4869
▁unlike 4870
▁tore 4871
▁secured 4872
▁romans 4873
▁roast 4874
▁requ 4875
▁nurs 4876
▁kne 4877
▁intervals 4878
▁danglars 4879
itz 4880
▁ruined 4881
▁retorted 4882
▁reject 4883
▁pretend 4884
▁perfection 4885
▁patch 4886
▁merit 4887
▁lodge 4888
▁joke 4889
▁examine 4890
▁echo 4891
▁distrib 4892
▁deer 4893
▁clothing 4894
▁centuries 4895
▁bul 4896
▁bone 4897
▁assert 4898
ural 4899
rors 4900
ovitch 4901
inct 4902
encies 4903
▁thief 4904
▁sunk 4905
▁splend 4906
▁ske 4907
▁pret 4908
▁polite 4909
▁perf 4910
▁meadow 4911
▁jackson 4912
▁income 4913
▁driver 4914
▁bible 4915
usions 4916
istic 4917
▁snake 4918
▁security 4919
▁pronounced 4920
▁porch 4921
▁nancy 4922
▁frost 4923
▁flushed 4924
▁enjoyment 4925
▁coun 4926
▁anxiously 4927
ption 4928
atched 4929
▁tables 4930
▁priv 4931
▁jump 4932
▁frightful 4933
▁dece 4934
▁conception 4935
▁center 4936
uting 4937
iant 4938
amm 4939
▁recognize 4940
▁recent 4941
▁purse 4942
▁promptly 4943
▁porter 4944
▁population 4945
▁overl 4946
▁moist 4947
▁glimpse 4948
▁glasses 4949
▁fan 4950
▁dried 4951
▁daring 4952
▁bald 4953
▁amuse 4954
rid 4955
inous 4956
▁whis 4957
▁streams 4958
▁spell 4959
▁spark 4960
▁spar 4961
▁sauce 4962
▁remove 4963
▁positive 4964
▁phys 4965
▁outward 4966
▁mould 4967
▁lim 4968
▁invisible 4969
▁enl 4970
▁convention 4971
▁consequences 4972
▁complaint 4973
▁bust 4974
uel 4975
lets 4976
iny 4977
▁zeal 4978
▁tramp 4979
▁stu 4980
▁slop 4981
▁restored 4982
▁republic 4983
▁reminded 4984
▁opposed 4985
▁indicated 4986
▁goose 4987
▁funeral 4988
▁existed 4989
▁dorothy 4990
▁bri 4991
▁bew 4992
▁aristocr 4993
▁accur 4994
▁ability 4995
ws 4996
ulating 4997
ston 4998
ox 4999
▁transl 5000
▁sofa 5001
▁sett 5002
▁rival 5003
▁peep 5004
▁obvious 5005
▁murdered 5006
▁minor 5007
▁jam 5008
▁issued 5009
▁issue 5010
▁imag 5011
▁diff 5012
▁defend 5013
▁charity 5014
▁betrayed 5015
gan 5016
▁wo 5017
▁tops 5018
▁spin 5019
▁sober 5020
▁sensitive 5021
▁reb 5022
▁realize 5023
▁newspapers 5024
▁martin 5025
▁lucky 5026
▁lawn 5027
▁keeper 5028
▁july 5029
▁hideous 5030
▁finest 5031
▁cour 5032
▁cape 5033
▁arts 5034
orable 5035
ope 5036
inking 5037
ashes 5038
▁ze 5039
▁weapon 5040
▁torment 5041
▁soph 5042
▁solitude 5043
▁quit 5044
▁pitch 5045
▁partic 5046
▁glow 5047
▁emma 5048
▁develop 5049
▁descri 5050
▁contempl 5051
▁comment 5052
▁bells 5053
▁awakened 5054
▁advised 5055
▁adv 5056
usive 5057
low 5058
itive 5059
▁vill 5060
▁trusted 5061
▁travelling 5062
▁tend 5063
▁succession 5064
▁shaw 5065
▁sancho 5066
▁rushing 5067
▁roots 5068
▁root 5069
▁preparations 5070
▁mixture 5071
▁methods 5072
▁intend 5073
▁fame 5074
▁detective 5075
▁comrade 5076
olent 5077
itudes 5078
ints 5079
inary 5080
▁restr 5081
▁jos 5082
▁instruct 5083
▁heir 5084
▁favourite 5085
▁exquisite 5086
▁eldest 5087
▁corners 5088
▁avail 5089
ruct 5090
ores 5091
olog 5092
ais 5093
▁shaped 5094
▁loudly 5095
▁holes 5096
▁fisher 5097
▁edith 5098
▁detail 5099
▁despite 5100
▁defence 5101
▁deadly 5102
▁conducted 5103
▁charged 5104
▁bred 5105
▁advantages 5106
ros 5107
pled 5108
bur 5109
astic 5110
▁trained 5111
▁suitable 5112
▁steal 5113
▁rejoined 5114
▁lav 5115
▁landing 5116
▁jealousy 5117
▁inclination 5118
▁goat 5119
▁fain 5120
▁essence 5121
▁ess 5122
▁distinguish 5123
▁creat 5124
▁copy 5125
▁conquer 5126
▁completed 5127
xt 5128
fort 5129
▁wilson 5130
▁wherefore 5131
▁spl 5132
▁roar 5133
▁ric 5134
▁quar 5135
▁privilege 5136
▁planet 5137
▁monk 5138
▁marg 5139
▁fishing 5140
▁engine 5141
▁disgust 5142
▁congrat 5143
▁carlyle 5144
▁brandon 5145
▁boxes 5146
▁amusement 5147
ury 5148
ooks 5149
iency 5150
▁tomorrow 5151
▁throng 5152
▁thereby 5153
▁sunlight 5154
▁politics 5155
▁plot 5156
▁naught 5157
▁loaded 5158
▁lessons 5159
▁determination 5160
▁deceived 5161
▁cotton 5162
▁confined 5163
▁betray 5164
▁apples 5165
▁allah 5166
nie 5167
eer 5168
ding 5169
anged 5170
▁youngest 5171
▁subst 5172
▁stephen 5173
▁signed 5174
▁sarah 5175
▁published 5176
▁prev 5177
▁passes 5178
▁obedience 5179
▁natured 5180
▁musical 5181
▁mic 5182
▁including 5183
▁imperfect 5184
▁esteem 5185
▁contain 5186
▁cards 5187
iated 5188
hest 5189
cribed 5190
can 5191
▁wat 5192
▁thoughtfully 5193
▁stre 5194
▁rig 5195
▁resistance 5196
▁repl 5197
▁preserve 5198
▁palm 5199
▁obl 5200
▁letting 5201
▁lantern 5202
▁indifference 5203
▁hus 5204
▁hesitation 5205
▁dwelling 5206
▁divers 5207
▁devotion 5208
▁bloss 5209
▁arrested 5210
ria 5211
ience 5212
idents 5213
eenth 5214
▁wick 5215
▁whereupon 5216
▁valjean 5217
▁stim 5218
▁shells 5219
▁pope 5220
▁pillow 5221
▁paying 5222
▁miller 5223
▁investig 5224
▁holland 5225
▁fortnight 5226
▁flor 5227
▁department 5228
▁copper 5229
▁changing 5230
▁autom 5231
▁annie 5232
▁angels 5233
rain 5234
llen 5235
leton 5236
gers 5237
▁vanity 5238
▁rubbed 5239
▁rh 5240
▁resolute 5241
▁mate 5242
▁load 5243
▁limited 5244
▁jacob 5245
▁inte 5246
▁forests 5247
▁dumb 5248
▁depends 5249
▁debt 5250
▁cy 5251
▁cure 5252
▁chimney 5253
▁ba 5254
▁arise 5255
▁admired 5256
resses 5257
▁tal 5258
▁responded 5259
▁minded 5260
▁jews 5261
▁ivan 5262
▁inward 5263
▁englishman 5264
▁borrow 5265
▁belt 5266
▁bees 5267
▁accounts 5268
utor 5269
pect 5270
ilities 5271
bridge 5272
atives 5273
aping 5274
any 5275
aire 5276
▁tobacco 5277
▁stolen 5278
▁robber 5279
▁mademoiselle 5280
▁jones 5281
▁import 5282
▁images 5283
▁hoping 5284
▁fathers 5285
▁easier 5286
▁disagreeable 5287
▁deeds 5288
▁citizen 5289
▁celebrated 5290
▁aven 5291
▁attain 5292
omin 5293
alled 5294
▁treacher 5295
▁sto 5296
▁sticks 5297
▁preferred 5298
▁pond 5299
▁pages 5300
▁om 5301
▁literary 5302
▁limit 5303
▁legal 5304
▁lasted 5305
▁impress 5306
▁idiot 5307
▁halt 5308
▁grove 5309
▁groups 5310
▁flee 5311
▁flames 5312
▁excellency 5313
▁ele 5314
▁disple 5315
▁deliber 5316
▁chances 5317
▁calcul 5318
▁blows 5319
▁bending 5320
▁beef 5321
rious 5322
iver 5323
itten 5324
ills 5325
▁warmth 5326
▁til 5327
▁sar 5328
▁romantic 5329
▁relative 5330
▁prevented 5331
▁parting 5332
▁pant 5333
▁mutual 5334
▁michael 5335
▁ladder 5336
▁individuals 5337
▁grows 5338
▁drowned 5339
▁ax 5340
▁authorities 5341
▁adventures 5342
yr 5343
vere 5344
pper 5345
onies 5346
anted 5347
▁tossed 5348
▁sunset 5349
▁ridiculous 5350
▁recogn 5351
▁ratt 5352
▁prayed 5353
▁plains 5354
▁packed 5355
▁nerves 5356
▁maintain 5357
▁interior 5358
▁inquire 5359
▁inferior 5360
▁gn 5361
▁facing 5362
▁erect 5363
▁dad 5364
▁blaz 5365
▁average 5366
▁ashore 5367
▁ascertain 5368
▁affl 5369
vest 5370
ss 5371
rep 5372
racted 5373
olence 5374
inence 5375
▁wra 5376
▁vig 5377
▁universe 5378
▁thorn 5379
▁studied 5380
▁risen 5381
▁rigid 5382
▁rein 5383
▁pistol 5384
▁orange 5385
▁iv 5386
▁indic 5387
▁glim 5388
▁forb 5389
▁disappear 5390
▁bears 5391
ulations 5392
pes 5393
itate 5394
icable 5395
aves 5396
▁yielded 5397
▁wherein 5398
▁unjust 5399
▁slid 5400
▁rescue 5401
▁province 5402
▁practically 5403
▁loyal 5404
▁innocence 5405
▁ine 5406
▁graceful 5407
▁elsewhere 5408
▁counted 5409
▁collected 5410
▁boiled 5411
▁angrily 5412
ients 5413
iar 5414
edy 5415
▁whoever 5416
▁whe 5417
▁total 5418
▁torrent 5419
▁theat 5420
▁spect 5421
▁scale 5422
▁operations 5423
▁offering 5424
▁miser 5425
▁mail 5426
▁ink 5427
▁illness 5428
▁hood 5429
▁fulf 5430
▁fid 5431
▁exped 5432
▁cannon 5433
▁boot 5434
sell 5435
piration 5436
▁staircase 5437
▁sour 5438
▁seize 5439
▁seconds 5440
▁searching 5441
▁reception 5442
▁push 5443
▁instruments 5444
▁inde 5445
▁impressed 5446
▁hull 5447
▁holds 5448
▁gang 5449
▁furious 5450
▁fountain 5451
▁faster 5452
▁encounter 5453
▁curiously 5454
▁criminal 5455
▁characteristic 5456
▁campaign 5457
▁beck 5458
▁assembled 5459
▁aren 5460
▁accomplish 5461
rier 5462
lic 5463
▁standard 5464
▁satisfactory 5465
▁regions 5466
▁recover 5467
▁rand 5468
▁raggedy 5469
▁quixote 5470
▁punish 5471
▁procession 5472
▁map 5473
▁likes 5474
▁jimmy 5475
▁dusk 5476
▁deaf 5477
▁brisk 5478
▁avoided 5479
▁amused 5480
▁administration 5481
ushing 5482
eur 5483
▁sixth 5484
▁rosy 5485
▁richmond 5486
▁resign 5487
▁railway 5488
▁machinery 5489
▁lin 5490
▁imprison 5491
▁impatient 5492
▁hook 5493
▁floated 5494
▁fanny 5495
▁exists 5496
▁dru 5497
▁denied 5498
▁commonly 5499
▁coffin 5500
▁clasped 5501
▁brass 5502
▁boston 5503
▁bond 5504
▁abbe 5505
verted 5506
uls 5507
rem 5508
itu 5509
bre 5510
▁wis 5511
▁vict 5512
▁velvet 5513
▁previously 5514
▁oy 5515
▁occupation 5516
▁namely 5517
▁lil 5518
▁langu 5519
▁instructions 5520
▁generation 5521
▁faintly 5522
▁engage 5523
▁desper 5524
▁crou 5525
▁convict 5526
▁cars 5527
▁acknowledged 5528
unch 5529
pher 5530
orter 5531
llo 5532
inder 5533
cks 5534
burg 5535
arts 5536
acked 5537
▁tempt 5538
▁sweep 5539
▁stores 5540
▁spur 5541
▁speaker 5542
▁neighborhood 5543
▁jolly 5544
▁illum 5545
▁gw 5546
▁furn 5547
▁fac 5548
▁conn 5549
▁combat 5550
▁captured 5551
▁candid 5552
▁assume 5553
igs 5554
gent 5555
arm 5556
▁unfortunately 5557
▁supposing 5558
▁revel 5559
▁prudence 5560
▁pirates 5561
▁johnny 5562
▁horrid 5563
▁fortunes 5564
▁followers 5565
▁doubtful 5566
▁dangers 5567
▁cush 5568
▁continent 5569
▁conceived 5570
▁balls 5571
▁april 5572
ye 5573
ping 5574
aly 5575
▁wheat 5576
▁vulgar 5577
▁ted 5578
▁surrounding 5579
▁solomon 5580
▁shudder 5581
▁september 5582
▁sentiments 5583
▁prow 5584
▁proposition 5585
▁prem 5586
▁nephew 5587
▁motor 5588
▁gilbert 5589
▁dwelt 5590
▁doc 5591
▁blown 5592
▁balance 5593
umes 5594
par 5595
isp 5596
ana 5597
▁warned 5598
▁summoned 5599
▁summit 5600
▁solemnly 5601
▁shores 5602
▁railroad 5603
▁propose 5604
▁profit 5605
▁phrase 5606
▁helping 5607
▁doctrine 5608
▁channel 5609
▁aroused 5610
▁americans 5611
ux 5612
uct 5613
mans 5614
hire 5615
eg 5616
cul 5617
▁woe 5618
▁vest 5619
▁tribe 5620
▁training 5621
▁seats 5622
▁rings 5623
▁rese 5624
▁repose 5625
▁reported 5626
▁rarely 5627
▁pressing 5628
▁num 5629
▁frederick 5630
▁fatigue 5631
▁dine 5632
▁brood 5633
geon 5634
berry 5635
anim 5636
▁wont 5637
▁verse 5638
▁undoubtedly 5639
▁transfer 5640
▁tram 5641
▁specim 5642
▁spear 5643
▁seventh 5644
▁runs 5645
▁questioned 5646
▁intentions 5647
▁healthy 5648
▁dishes 5649
▁deserve 5650
▁delicious 5651
▁compliment 5652
▁breathe 5653
▁bou 5654
▁assistant 5655
▁assembly 5656
▁anton 5657
une 5658
ray 5659
ipping 5660
fied 5661
ai 5662
▁vac 5663
▁upward 5664
▁slope 5665
▁sensations 5666
▁recommend 5667
▁pleasures 5668
▁performance 5669
▁nob 5670
▁monkey 5671
▁medical 5672
▁launcelot 5673
▁latin 5674
▁killing 5675
▁impart 5676
▁footsteps 5677
▁errand 5678
▁dug 5679
▁dram 5680
▁dashed 5681
▁complex 5682
▁breathed 5683
vation 5684
oint 5685
ernal 5686
eling 5687
aging 5688
▁upright 5689
▁travellers 5690
▁swords 5691
▁spectacle 5692
▁shalt 5693
▁shaggy 5694
▁sails 5695
▁regards 5696
▁recalled 5697
▁lifting 5698
▁kat 5699
▁instances 5700
▁glowing 5701
▁fortunately 5702
▁err 5703
▁eagle 5704
▁downstairs 5705
▁dot 5706
▁dost 5707
▁creek 5708
▁corrupt 5709
▁convenient 5710
▁confession 5711
▁blast 5712
▁advancing 5713
▁addressing 5714
fect 5715
arn 5716
▁violently 5717
▁vex 5718
▁strict 5719
▁secretly 5720
▁ple 5721
▁ow 5722
▁morn 5723
▁hasn 5724
▁demands 5725
▁dart 5726
▁butt 5727
▁boiling 5728
▁bloody 5729
▁arrest 5730
▁affectionate 5731
nders 5732
natural 5733
gen 5734
athan 5735
▁wasted 5736
▁vigor 5737
▁turkey 5738
▁tumult 5739
▁travelled 5740
▁threshold 5741
▁territory 5742
▁terribly 5743
▁submit 5744
▁schools 5745
▁residence 5746
▁prosperity 5747
▁jury 5748
▁intim 5749
▁injured 5750
▁humour 5751
▁heav 5752
▁dropping 5753
▁displayed 5754
▁backward 5755
▁attent 5756
▁ard 5757
▁accompany 5758
ument 5759
uity 5760
ocked 5761
izz 5762
iving 5763
itute 5764
gram 5765
force 5766
▁thoughtful 5767
▁stirring 5768
▁scru 5769
▁raw 5770
▁purchase 5771
▁pra 5772
▁portrait 5773
▁offended 5774
▁maintained 5775
▁fare 5776
▁eighth 5777
▁eff 5778
▁curtain 5779
▁creation 5780
▁coron 5781
▁conqu 5782
▁assurance 5783
▁altered 5784
▁africa 5785
▁acknowledge 5786
keys 5787
hetic 5788
▁wilderness 5789
▁vine 5790
▁toil 5791
▁swallowed 5792
▁supplied 5793
▁strictly 5794
▁simplicity 5795
▁section 5796
▁persuade 5797
▁owned 5798
▁observing 5799
▁normal 5800
▁missing 5801
▁levin 5802
▁landscape 5803
▁fet 5804
▁envy 5805
▁cultiv 5806
▁cond 5807
▁catching 5808
▁apost 5809
ements 5810
cil 5811
ander 5812
▁tu 5813
▁tort 5814
▁theirs 5815
▁steamer 5816
▁spots 5817
▁serpent 5818
▁requires 5819
▁poets 5820
▁penn 5821
▁parish 5822
▁moan 5823
▁liver 5824
▁kid 5825
▁injury 5826
▁fir 5827
▁fawn 5828
▁complexion 5829
▁brick 5830
▁brains 5831
▁believing 5832
ucky 5833
roy 5834
jo 5835
ceptible 5836
▁transform 5837
▁survey 5838
▁struggled 5839
▁stamp 5840
▁speedily 5841
▁searched 5842
▁ruins 5843
▁ridge 5844
▁refer 5845
▁politeness 5846
▁partner 5847
▁overhead 5848
▁offence 5849
▁mot 5850
▁lace 5851
▁kennedy 5852
▁jewel 5853
▁hurrying 5854
▁humor 5855
▁hercules 5856
▁harder 5857
▁forgetting 5858
▁expectation 5859
▁dense 5860
▁creep 5861
▁cheerfully 5862
▁announce 5863
onic 5864
iate 5865
aus 5866
▁uncomfortable 5867
▁torture 5868
▁springs 5869
▁sem 5870
▁repro 5871
▁positively 5872
▁phr 5873
▁natives 5874
▁impatience 5875
▁hopeless 5876
▁heavenly 5877
▁gossip 5878
▁frozen 5879
▁friday 5880
▁franz 5881
▁fors 5882
▁extend 5883
▁establishment 5884
▁endeavour 5885
▁earn 5886
▁dishon 5887
▁curtains 5888
▁compassion 5889
▁careless 5890
▁arr 5891
▁anguish 5892
▁agitation 5893
▁admiral 5894
▁access 5895
uz 5896
ounce 5897
fts 5898
end 5899
▁wreck 5900
▁venus 5901
▁stall 5902
▁serv 5903
▁saving 5904
▁restless 5905
▁rect 5906
▁recei 5907
▁ranks 5908
▁prime 5909
▁philosopher 5910
▁neglected 5911
▁monday 5912
▁mitya 5913
▁magician 5914
▁lic 5915
▁kin 5916
▁hop 5917
▁haired 5918
▁function 5919
▁founded 5920
▁flies 5921
▁enqu 5922
▁embrace 5923
▁decent 5924
▁dazz 5925
▁consented 5926
▁churches 5927
ograph 5928
ec 5929
▁willingly 5930
▁swimming 5931
▁shoe 5932
▁shif 5933
▁recently 5934
▁precaut 5935
▁obviously 5936
▁leads 5937
▁journal 5938
▁jason 5939
▁hare 5940
▁guilt 5941
▁fold 5942
▁dreaming 5943
▁crest 5944
▁coarse 5945
▁cents 5946
▁butler 5947
▁bapt 5948
▁anchor 5949
ita 5950
fold 5951
ems 5952
atively 5953
▁tools 5954
▁stove 5955
▁sket 5956
▁robe 5957
▁rice 5958
▁redu 5959
▁insect 5960
▁forming 5961
▁dil 5962
▁conceive 5963
▁cellar 5964
▁bags 5965
▁alight 5966
umps 5967
eers 5968
atically 5969
▁wretch 5970
▁woo 5971
▁wed 5972
▁tribes 5973
▁speaks 5974
▁slay 5975
▁sincere 5976
▁scott 5977
▁riches 5978
▁punished 5979
▁planted 5980
▁painting 5981
▁lip 5982
▁limits 5983
▁legisl 5984
▁leaders 5985
▁independence 5986
▁impatiently 5987
▁hush 5988
▁hedge 5989
▁greeted 5990
▁flowing 5991
▁engineer 5992
▁doll 5993
▁division 5994
▁covering 5995
▁cosette 5996
▁chop 5997
▁cens 5998
▁avenue 5999
▁amiable 6000
orious 6001
not 6002
ivered 6003
▁withdrew 6004
▁waving 6005
▁superst 6006
▁staying 6007
▁protested 6008
▁persec 6009
▁motives 6010
▁locks 6011
▁liberal 6012
▁kick 6013
▁irregular 6014
▁highness 6015
▁grain 6016
▁flora 6017
▁elbow 6018
▁discl 6019
▁derived 6020
▁consisted 6021
▁confirmed 6022
▁chill 6023
▁bills 6024
▁bend 6025
▁bargain 6026
▁altar 6027
▁adding 6028
rance 6029
▁walks 6030
▁temperature 6031
▁stoop 6032
▁seal 6033
▁rout 6034
▁ris 6035
▁peasants 6036
▁neighbor 6037
▁memories 6038
▁magistrate 6039
▁keys 6040
▁judged 6041
▁jail 6042
▁graham 6043
▁crow 6044
▁convent 6045
▁checked 6046
▁certainty 6047
▁blowing 6048
pers 6049
ovna 6050
lands 6051
aid 6052
▁yourselves 6053
▁twisted 6054
▁twas 6055
▁thro 6056
▁thorough 6057
▁sailing 6058
▁rows 6059
▁rational 6060
▁needle 6061
▁lur 6062
▁justified 6063
▁ju 6064
▁improve 6065
▁employment 6066
▁dew 6067
▁connect 6068
▁cha 6069
▁cautiously 6070
▁bidding 6071
▁association 6072
urity 6073
rical 6074
oths 6075
nde 6076
ban 6077
▁wander 6078
▁vote 6079
▁viz 6080
▁tenderly 6081
▁steward 6082
▁romance 6083
▁rebecca 6084
▁proposal 6085
▁obscure 6086
▁nowhere 6087
▁morgan 6088
▁magnet 6089
▁lordship 6090
▁impressions 6091
▁haunt 6092
▁foundation 6093
▁elegant 6094
▁boldly 6095
▁bea 6096
greg 6097
don 6098
▁wounds 6099
▁woke 6100
▁vigorous 6101
▁unwilling 6102
▁rocky 6103
▁providence 6104
▁prodig 6105
▁planned 6106
▁pilgrim 6107
▁passionate 6108
▁mansion 6109
▁inspired 6110
▁insens 6111
▁induced 6112
▁exagger 6113
▁disin 6114
▁cruelty 6115
▁cavern 6116
▁cash 6117
▁bundle 6118
▁brist 6119
▁assum 6120
▁achieve 6121
▁ 6122
kh 6123
ject 6124
ishment 6125
ique 6126
burgh 6127
angle 6128
▁vap 6129
▁sullen 6130
▁shan 6131
▁seed 6132
▁retire 6133
▁reserve 6134
▁ragged 6135
▁proceeding 6136
▁pri 6137
▁mourning 6138
▁moderate 6139
▁matthew 6140
▁marius 6141
▁judges 6142
▁improvement 6143
▁halted 6144
▁glittering 6145
▁gleam 6146
▁glancing 6147
▁gener 6148
▁gasped 6149
▁enterprise 6150
▁encountered 6151
▁couch 6152
▁consists 6153
▁confessed 6154
▁caution 6155
▁carved 6156
▁attempts 6157
▁armies 6158
▁application 6159
▁aboard 6160
tes 6161
rian 6162
pson 6163
oub 6164
ibilities 6165
asy 6166
▁symb 6167
▁stair 6168
▁sheer 6169
▁perpetual 6170
▁oppress 6171
▁november 6172
▁mob 6173
▁madness 6174
▁intent 6175
▁hypnot 6176
▁embraced 6177
▁commerce 6178
▁collection 6179
▁clearing 6180
▁bowl 6181
▁beggar 6182
▁balloon 6183
▁aut 6184
▁arrange 6185
wart 6186
ris 6187
iety 6188
ech 6189
aments 6190
alt 6191
▁tot 6192
▁sme 6193
▁sins 6194
▁sinking 6195
▁sheriff 6196
▁severely 6197
▁seeming 6198
▁rhy 6199
▁recollection 6200
▁prosec 6201
▁poem 6202
▁pled 6203
▁picking 6204
▁offe 6205
▁observations 6206
▁mustn 6207
▁lads 6208
▁inspector 6209
▁filling 6210
▁feature 6211
▁establish 6212
▁est 6213
▁drum 6214
▁descent 6215
▁decidedly 6216
▁crushed 6217
▁contri 6218
▁combined 6219
▁cliffs 6220
▁chr 6221
▁bonds 6222
▁awe 6223
▁accused 6224
▁wor 6225
▁wages 6226
▁vice 6227
▁supplies 6228
▁stricken 6229
▁smallest 6230
▁referred 6231
▁reasoning 6232
▁obser 6233
▁neglect 6234
▁monot 6235
▁landlord 6236
▁intercourse 6237
▁hurriedly 6238
▁fiercely 6239
▁fee 6240
▁dissol 6241
▁clam 6242
▁ceremon 6243
▁ceiling 6244
▁bree 6245
▁backs 6246
▁arrangements 6247
▁anticip 6248
uce 6249
irm 6250
born 6251
bable 6252
▁verses 6253
▁tightly 6254
▁thumb 6255
▁temptation 6256
▁swam 6257
▁sufferings 6258
▁sergeant 6259
▁select 6260
▁retain 6261
▁respects 6262
▁preparation 6263
▁prel 6264
▁offices 6265
▁nautilus 6266
▁mun 6267
▁mostly 6268
▁maggie 6269
▁incom 6270
▁groan 6271
▁endless 6272
▁enable 6273
▁disorder 6274
▁corpse 6275
▁conv 6276
▁clo 6277
▁clad 6278
▁bows 6279
▁bewildered 6280
▁attained 6281
▁anim 6282
ya 6283
ater 6284
▁wy 6285
▁wig 6286
▁terrified 6287
▁telegraph 6288
▁tele 6289
▁smiles 6290
▁remembering 6291
▁reass 6292
▁pul 6293
▁propriet 6294
▁procure 6295
▁policy 6296
▁pleasing 6297
▁pie 6298
▁peaceful 6299
▁ost 6300
▁mule 6301
▁meadows 6302
▁indef 6303
▁inconven 6304
▁educated 6305
▁dismay 6306
▁dict 6307
▁destiny 6308
▁davy 6309
▁curse 6310
▁crazy 6311
▁brethren 6312
▁allan 6313
nic 6314
lie 6315
gress 6316
asion 6317
action 6318
▁violet 6319
▁surrender 6320
▁stretch 6321
▁shaken 6322
▁ree 6323
▁lid 6324
▁lent 6325
▁lend 6326
▁infant 6327
▁harmony 6328
▁foul 6329
▁conj 6330
▁concert 6331
▁colors 6332
▁britain 6333
▁bestowed 6334
rows 6335
ization 6336
ift 6337
anced 6338
▁tradition 6339
▁tendency 6340
▁soup 6341
▁secrets 6342
▁scold 6343
▁russia 6344
▁raoul 6345
▁rab 6346
▁prophet 6347
▁prophe 6348
▁obsc 6349
▁luxury 6350
▁lions 6351
▁julius 6352
▁interval 6353
▁fogg 6354
▁foe 6355
▁brute 6356
▁brows 6357
▁basin 6358
▁advise 6359
tery 6360
ounds 6361
iser 6362
inks 6363
ilet 6364
gy 6365
▁trousers 6366
▁resemb 6367
▁repe 6368
▁ram 6369
▁parlour 6370
▁paradise 6371
▁neighbours 6372
▁moscow 6373
▁melted 6374
▁measured 6375
▁lun 6376
▁laura 6377
▁fruits 6378
▁fig 6379
▁drake 6380
▁disguise 6381
▁commands 6382
▁claims 6383
▁cares 6384
▁bite 6385
▁arrows 6386
ndered 6387
inating 6388
inal 6389
hin 6390
cle 6391
cious 6392
▁wealthy 6393
▁wars 6394
▁streng 6395
▁squir 6396
▁slipp 6397
▁ori 6398
▁mothers 6399
▁medium 6400
▁jacket 6401
▁introduce 6402
▁hearth 6403
▁formal 6404
▁extravag 6405
▁equality 6406
▁entertained 6407
▁duration 6408
▁dresses 6409
▁doubts 6410
▁dislike 6411
▁december 6412
▁closing 6413
▁axe 6414
▁awaken 6415
▁awaiting 6416
▁assault 6417
▁annoy 6418
▁abraham 6419
yard 6420
ully 6421
onel 6422
inging 6423
inge 6424
gue 6425
elf 6426
ded 6427
cc 6428
▁tread 6429
▁tenth 6430
▁soci 6431
▁representative 6432
▁remedy 6433
▁prec 6434
▁polished 6435
▁persu 6436
▁patron 6437
▁lam 6438
▁invol 6439
▁inquiries 6440
▁harmon 6441
▁faculty 6442
▁eagerness 6443
▁deserved 6444
▁convey 6445
▁comparison 6446
▁clover 6447
▁abode 6448
sed 6449
ounted 6450
och 6451
ived 6452
itious 6453
iddle 6454
herent 6455
cel 6456
▁wits 6457
▁upset 6458
▁unconsciously 6459
▁treasures 6460
▁stub 6461
▁restore 6462
▁parent 6463
▁materials 6464
▁lou 6465
▁impuls 6466
▁haul 6467
▁existing 6468
▁enabled 6469
▁eh 6470
▁editor 6471
▁defect 6472
▁critic 6473
▁clung 6474
▁beautifully 6475
▁answering 6476
▁admirable 6477
ula 6478
iana 6479
fish 6480
assed 6481
▁subtle 6482
▁shine 6483
▁robbed 6484
▁reports 6485
▁pu 6486
▁plays 6487
▁plague 6488
▁observ 6489
▁nightingale 6490
▁navig 6491
▁mem 6492
▁liber 6493
▁lev 6494
▁largest 6495
▁grind 6496
▁fern 6497
▁experiences 6498
▁enjoying 6499
▁dod 6500
▁diver 6501
▁detect 6502
▁amelia 6503
udge 6504
neys 6505
izes 6506
ena 6507
ania 6508
▁whim 6509
▁transport 6510
▁text 6511
▁spargo 6512
▁serving 6513
▁scand 6514
▁savages 6515
▁sandy 6516
▁sack 6517
▁route 6518
▁rebell 6519
▁qual 6520
▁placing 6521
▁perplex 6522
▁peer 6523
▁mol 6524
▁loo 6525
▁largely 6526
▁knelt 6527
▁kent 6528
▁gy 6529
▁gloves 6530
▁faire 6531
▁eleph 6532
▁doubted 6533
▁cows 6534
▁composition 6535
▁complain 6536
▁commercial 6537
▁cigar 6538
▁bits 6539
ove 6540
nut 6541
iel 6542
cip 6543
bers 6544
▁wrought 6545
▁traveller 6546
▁telephone 6547
▁situated 6548
▁sickness 6549
▁renewed 6550
▁released 6551
▁recognised 6552
▁pushing 6553
▁prett 6554
▁perpet 6555
▁pearls 6556
▁og 6557
▁occasional 6558
▁muscular 6559
▁ministers 6560
▁louder 6561
▁lemon 6562
▁ket 6563
▁fiery 6564
▁cru 6565
▁contest 6566
▁conject 6567
▁compass 6568
▁climbing 6569
▁caval 6570
▁bub 6571
▁bigger 6572
▁apolog 6573
▁amusing 6574
▁abst 6575
usal 6576
por 6577
other 6578
oons 6579
ko 6580
heus 6581
ails 6582
▁vib 6583
▁turtle 6584
▁tremble 6585
▁sac 6586
▁reserved 6587
▁release 6588
▁purely 6589
▁psmith 6590
▁provide 6591
▁promises 6592
▁preceding 6593
▁phenomena 6594
▁nuts 6595
▁maj 6596
▁inval 6597
▁hostile 6598
▁hasty 6599
▁fa 6600
▁encouraged 6601
▁dispute 6602
▁childish 6603
▁carr 6604
▁awaited 6605
▁alexander 6606
vous 6607
rial 6608
port 6609
oof 6610
antic 6611
aching 6612
▁visits 6613
▁vers 6614
▁valentine 6615
▁trem 6616
▁sund 6617
▁shiver 6618
▁ringing 6619
▁photograph 6620
▁pavement 6621
▁occupy 6622
▁likeness 6623
▁hearty 6624
▁gravity 6625
▁games 6626
▁formidable 6627
▁empt 6628
▁dame 6629
▁corridor 6630
▁conven 6631
▁contains 6632
▁behalf 6633
▁ambassad 6634
▁adopt 6635
▁accompl 6636
zen 6637
apsed 6638
▁workmen 6639
▁swinging 6640
▁stooped 6641
▁stained 6642
▁spir 6643
▁scent 6644
▁resources 6645
▁remorse 6646
▁pad 6647
▁october 6648
▁nom 6649
▁necess 6650
▁mam 6651
▁inevitable 6652
▁included 6653
▁horns 6654
▁ellen 6655
▁deemed 6656
▁colon 6657
▁circum 6658
▁caesar 6659
ucked 6660
roll 6661
ourt 6662
ork 6663
line 6664
liest 6665
dered 6666
alog 6667
▁veins 6668
▁vale 6669
▁tempted 6670
▁sympath 6671
▁student 6672
▁rul 6673
▁rubbing 6674
▁rou 6675
▁professional 6676
▁printed 6677
▁prevailed 6678
▁paces 6679
▁oven 6680
▁narrative 6681
▁nails 6682
▁mult 6683
▁mayor 6684
▁learnt 6685
▁japanese 6686
▁invention 6687
▁globe 6688
▁faults 6689
▁eleanor 6690
▁economic 6691
▁dolls 6692
▁dismissed 6693
▁cred 6694
▁cordial 6695
▁cavalry 6696
▁bunch 6697
▁athen 6698
▁answers 6699
zil 6700
uated 6701
tern 6702
ridge 6703
lor 6704
ington 6705
acher 6706
▁winding 6707
▁tiger 6708
▁sust 6709
▁surprising 6710
▁stool 6711
▁slee 6712
▁responsibility 6713
▁recognition 6714
▁rash 6715
▁pos 6716
▁poly 6717
▁martha 6718
▁mare 6719
▁lee 6720
▁indisp 6721
▁housekeeper 6722
▁guarded 6723
▁grasped 6724
▁gigantic 6725
▁flowed 6726
▁flock 6727
▁election 6728
▁drown 6729
▁discourse 6730
▁deprived 6731
▁dearly 6732
▁cooking 6733
▁clust 6734
ody 6735
illa 6736
foot 6737
ety 6738
ero 6739
▁villain 6740
▁undertake 6741
▁tracks 6742
▁thankful 6743
▁stal 6744
▁snapped 6745
▁slew 6746
▁shelf 6747
▁reverence 6748
▁remembrance 6749
▁prot 6750
▁monstrous 6751
▁interfere 6752
▁heroes 6753
▁harness 6754
▁greatness 6755
▁fragments 6756
▁forbidden 6757
▁fitting 6758
▁firing 6759
▁federal 6760
▁fairies 6761
▁echoed 6762
▁durham 6763
▁dub 6764
▁conspicuous 6765
▁column 6766
▁colours 6767
▁chem 6768
▁bru 6769
▁breton 6770
▁betty 6771
▁benev 6772
▁arguments 6773
▁apartments 6774
▁alar 6775
ta 6776
ji 6777
imer 6778
cian 6779
aired 6780
acon 6781
▁wildly 6782
▁thereupon 6783
▁sunny 6784
▁spoil 6785
▁sparkling 6786
▁simpl 6787
▁selected 6788
▁sant 6789
▁responsible 6790
▁rene 6791
▁prolong 6792
▁personally 6793
▁oars 6794
▁nora 6795
▁nigh 6796
▁lowest 6797
▁lodging 6798
▁induce 6799
▁gulf 6800
▁guardian 6801
▁goddess 6802
▁emp 6803
▁destined 6804
▁convuls 6805
▁compare 6806
▁cakes 6807
▁aw 6808
▁apron 6809
▁appearances 6810
▁alt 6811
tending 6812
ruction 6813
ikov 6814
burn 6815
bot 6816
arin 6817
anda 6818
▁vault 6819
▁uncommon 6820
▁tragedy 6821
▁sweetness 6822
▁stamped 6823
▁rider 6824
▁reflections 6825
▁quart 6826
▁pel 6827
▁patiently 6828
▁passages 6829
▁parson 6830
▁nun 6831
▁mask 6832
▁jaws 6833
▁impert 6834
▁hem 6835
▁heel 6836
▁executed 6837
▁estim 6838
▁dum 6839
▁drunken 6840
▁droop 6841
▁dreaded 6842
▁deliberately 6843
▁degr 6844
▁briefly 6845
▁blade 6846
▁benef 6847
▁bart 6848
▁amidst 6849
uding 6850
rick 6851
ressing 6852
omb 6853
itors 6854
ican 6855
estic 6856
arian 6857
▁warrior 6858
▁toss 6859
▁suited 6860
▁screen 6861
▁rue 6862
▁pow 6863
▁permanent 6864
▁perish 6865
▁perch 6866
▁pencil 6867
▁outs 6868
▁milton 6869
▁melt 6870
▁lud 6871
▁lowered 6872
▁lecture 6873
▁leagues 6874
▁inh 6875
▁holiday 6876
▁fund 6877
▁explos 6878
▁entitled 6879
▁effective 6880
▁contrived 6881
▁comprehens 6882
▁brightly 6883
▁awa 6884
reg 6885
pered 6886
cription 6887
arded 6888
▁virgin 6889
▁squee 6890
▁sports 6891
▁sever 6892
▁remainder 6893
▁raven 6894
▁patriot 6895
▁paths 6896
▁lots 6897
▁eug 6898
▁condemn 6899
▁comple 6900
▁chinese 6901
▁battles 6902
▁barr 6903
▁ark 6904
zzie 6905
zes 6906
rating 6907
lym 6908
lock 6909
isy 6910
ipe 6911
gon 6912
▁tails 6913
▁screamed 6914
▁resemblance 6915
▁pacific 6916
▁openly 6917
▁muscles 6918
▁haunted 6919
▁frankly 6920
▁flu 6921
▁eustace 6922
▁elev 6923
▁earthly 6924
▁earliest 6925
▁corporal 6926
▁chicken 6927
▁cel 6928
▁assass 6929
▁artificial 6930
▁agitated 6931
▁afforded 6932
▁abstract 6933
pense 6934
pelled 6935
oked 6936
ingham 6937
ineas 6938
ien 6939
hold 6940
heart 6941
ensions 6942
atisf 6943
asping 6944
aim 6945
▁x 6946
▁wonders 6947
▁weighed 6948
▁waking 6949
▁twist 6950
▁trifle 6951
▁threatening 6952
▁tailor 6953
▁structure 6954
▁skull 6955
▁shrewd 6956
▁rot 6957
▁recess 6958
▁nod 6959
▁niece 6960
▁model 6961
▁misfortunes 6962
▁liquid 6963
▁furnish 6964
▁fam 6965
▁ecst 6966
▁conquered 6967
▁clara 6968
▁candles 6969
▁bullet 6970
▁bonnet 6971
▁bluff 6972
▁beaut 6973
▁asserted 6974
▁accompan 6975
vial 6976
unt 6977
stand 6978
soever 6979
ifications 6980
aneously 6981
▁uses 6982
▁unh 6983
▁thyself 6984
▁students 6985
▁stif 6986
▁spy 6987
▁sets 6988
▁sanct 6989
▁remonstr 6990
▁relate 6991
▁priscilla 6992
▁pouring 6993
▁plum 6994
▁pinocchio 6995
▁pearl 6996
▁nick 6997
▁newly 6998
▁lege 6999
▁intently 7000
▁institutions 7001
▁injustice 7002
▁glances 7003
▁fert 7004
▁dollar 7005
▁discipline 7006
▁desirable 7007
▁democratic 7008
▁consolation 7009
▁columb 7010
▁closet 7011
▁charms 7012
▁barrel 7013
▁barely 7014
▁appointment 7015
▁amy 7016
▁abs 7017
tel 7018
ross 7019
ooked 7020
ew 7021
bor 7022
asc 7023
armed 7024
airs 7025
▁wolves 7026
▁volcan 7027
▁vital 7028
▁university 7029
▁temples 7030
▁strongest 7031
▁serene 7032
▁prosper 7033
▁pron 7034
▁plates 7035
▁patsy 7036
▁pang 7037
▁myst 7038
▁mouths 7039
▁manuscript 7040
▁kar 7041
▁jac 7042
▁init 7043
▁guided 7044
▁gardener 7045
▁frenchman 7046
▁fif 7047
▁estralla 7048
▁delicacy 7049
▁creeping 7050
▁comparatively 7051
▁clothed 7052
▁cad 7053
▁bodily 7054
▁associated 7055
▁angle 7056
▁agreement 7057
▁affirm 7058
retion 7059
opl 7060
joy 7061
ias 7062
ental 7063
▁writers 7064
▁underneath 7065
▁thieves 7066
▁surm 7067
▁subsequ 7068
▁strang 7069
▁stillness 7070
▁slumber 7071
▁slim 7072
▁righteous 7073
▁reven 7074
▁rags 7075
▁raft 7076
▁puts 7077
▁persisted 7078
▁perceiving 7079
▁nobility 7080
▁moses 7081
▁mathem 7082
▁justify 7083
▁irre 7084
▁incapable 7085
▁improved 7086
▁generations 7087
▁gau 7088
▁ford 7089
▁exhibited 7090
▁examining 7091
▁evol 7092
▁ell 7093
▁defeat 7094
▁damsel 7095
▁customs 7096
▁calam 7097
▁apprehension 7098
▁accum 7099
ture 7100
ques 7101
iece 7102
hesis 7103
erving 7104
chester 7105
▁wool 7106
▁umbrella 7107
▁swore 7108
▁swamp 7109
▁suspicious 7110
▁scared 7111
▁rejoiced 7112
▁prostr 7113
▁probability 7114
▁privile 7115
▁pleaded 7116
▁pirate 7117
▁philadelphia 7118
▁owners 7119
▁muff 7120
▁mos 7121
▁jude 7122
▁jimmie 7123
▁jerry 7124
▁january 7125
▁hoof 7126
▁hoarse 7127
▁fowl 7128
▁fisherman 7129
▁extensive 7130
▁eternity 7131
▁emphasis 7132
▁crystal 7133
▁choo 7134
▁canvas 7135
▁california 7136
▁bother 7137
uits 7138
ua 7139
mble 7140
istered 7141
irs 7142
inson 7143
erable 7144
elie 7145
▁writ 7146
▁vary 7147
▁superintend 7148
▁studying 7149
▁startling 7150
▁spreading 7151
▁specially 7152
▁snatched 7153
▁senator 7154
▁scotch 7155
▁roughly 7156
▁poems 7157
▁orchard 7158
▁oppon 7159
▁nobles 7160
▁marrying 7161
▁jes 7162
▁inspect 7163
▁humb 7164
▁hugh 7165
▁glacier 7166
▁european 7167
▁dunbar 7168
▁draught 7169
▁culture 7170
▁cousins 7171
▁claimed 7172
▁bravely 7173
▁advers 7174
race 7175
pton 7176
otion 7177
omed 7178
gging 7179
▁wiped 7180
▁testimony 7181
▁symptoms 7182
▁suspended 7183
▁spaniards 7184
▁shared 7185
▁separation 7186
▁sculpt 7187
▁rises 7188
▁returns 7189
▁refresh 7190
▁prejud 7191
▁nursery 7192
▁neg 7193
▁maidens 7194
▁luxur 7195
▁jasper 7196
▁imperial 7197
▁hud 7198
▁hats 7199
▁hann 7200
▁guy 7201
▁fearing 7202
▁favorable 7203
▁extra 7204
▁exh 7205
▁elabor 7206
▁dash 7207
▁darted 7208
▁celebr 7209
▁casting 7210
▁brandy 7211
▁basis 7212
▁barrier 7213
▁background 7214
▁aye 7215
▁area 7216
▁antiqu 7217
▁anti 7218
▁abol 7219
rers 7220
ranean 7221
othed 7222
inkling 7223
inement 7224
heard 7225
atter 7226
▁writes 7227
▁wholes 7228
▁visiting 7229
▁villefort 7230
▁tyr 7231
▁troop 7232
▁thir 7233
▁sym 7234
▁sul 7235
▁smote 7236
▁significance 7237
▁sid 7238
▁shops 7239
▁shocked 7240
▁scarecrow 7241
▁ruler 7242
▁relax 7243
▁pursue 7244
▁punct 7245
▁phoenix 7246
▁phant 7247
▁mit 7248
▁marie 7249
▁management 7250
▁institution 7251
▁hesitate 7252
▁harbour 7253
▁fant 7254
▁expressions 7255
▁entertainment 7256
▁enlight 7257
▁dispos 7258
▁diffe 7259
▁declined 7260
▁customary 7261
▁clergyman 7262
▁chim 7263
▁chains 7264
▁carelessly 7265
▁bleed 7266
▁aught 7267
▁attractive 7268
▁attorney 7269
▁amazed 7270
erous 7271
chers 7272
ape 7273
▁welfare 7274
▁wand 7275
▁therein 7276
▁sublime 7277
▁stag 7278
▁spoon 7279
▁spared 7280
▁soap 7281
▁roaring 7282
▁relatives 7283
▁redd 7284
▁records 7285
▁prohib 7286
▁policeman 7287
▁peop 7288
▁ming 7289
▁mall 7290
▁lazy 7291
▁kissing 7292
▁ingen 7293
▁fitz 7294
▁discont 7295
▁declaration 7296
▁commanding 7297
▁coachman 7298
▁chateau 7299
▁cass 7300
▁adams 7301
▁accent 7302
rained 7303
oust 7304
long 7305
ivity 7306
aneous 7307
adle 7308
▁vi 7309
▁vehic 7310
▁trout 7311
▁timber 7312
▁thom 7313
▁scant 7314
▁quaint 7315
▁pert 7316
▁personality 7317
▁perse 7318
▁mike 7319
▁mice 7320
▁matt 7321
▁joyous 7322
▁horseback 7323
▁gregg 7324
▁fools 7325
▁factory 7326
▁defin 7327
▁constructed 7328
▁circular 7329
▁cigaret 7330
▁capture 7331
▁breathless 7332
▁bolt 7333
▁behaved 7334
▁anthea 7335
▁ample 7336
▁agricult 7337
ounced 7338
ode 7339
lying 7340
lace 7341
itan 7342
iche 7343
ese 7344
borne 7345
ather 7346
anks 7347
ager 7348
▁weigh 7349
▁unworthy 7350
▁unre 7351
▁uncon 7352
▁ta 7353
▁sel 7354
▁response 7355
▁provision 7356
▁pattern 7357
▁machines 7358
▁lamps 7359
▁involved 7360
▁intol 7361
▁incess 7362
▁hunted 7363
▁hired 7364
▁generosity 7365
▁gamb 7366
▁fancies 7367
▁entr 7368
▁dolly 7369
▁disdain 7370
▁determine 7371
▁democr 7372
▁crash 7373
▁christianity 7374
▁cath 7375
▁burg 7376
▁based 7377
▁academ 7378
urg 7379
reet 7380
oor 7381
ona 7382
▁voc 7383
▁stare 7384
▁sou 7385
▁sealed 7386
▁scrut 7387
▁repair 7388
▁quarre 7389
▁protected 7390
▁potatoes 7391
▁paste 7392
▁particulars 7393
▁pars 7394
▁orn 7395
▁marching 7396
▁lum 7397
▁ll 7398
▁isol 7399
▁interposed 7400
▁granite 7401
▁february 7402
▁dares 7403
▁curt 7404
▁crust 7405
▁commons 7406
▁cler 7407
▁civilized 7408
▁blush 7409
▁appreciate 7410
version 7411
utive 7412
urable 7413
unders 7414
ieu 7415
athetic 7416
▁wonderfully 7417
▁vexed 7418
▁triumphant 7419
▁sor 7420
▁settlement 7421
▁sax 7422
▁ripe 7423
▁pupils 7424
▁preced 7425
▁prairie 7426
▁pigs 7427
▁perception 7428
▁pap 7429
▁oun 7430
▁oldest 7431
▁merchants 7432
▁literally 7433
▁incredible 7434
▁exult 7435
▁exhaust 7436
▁enchanted 7437
▁enchant 7438
▁discussed 7439
▁discom 7440
▁dirt 7441
▁determ 7442
▁cyril 7443
▁carpent 7444
▁atlantic 7445
▁aston 7446
▁assisted 7447
▁assertion 7448
▁ale 7449
▁abyss 7450
▁abundance 7451
vant 7452
phy 7453
orpe 7454
lder 7455
ench 7456
bear 7457
▁worm 7458
▁verd 7459
▁unseen 7460
▁temporary 7461
▁tact 7462
▁symp 7463
▁stately 7464
▁sphere 7465
▁script 7466
▁restraint 7467
▁regularly 7468
▁quivering 7469
▁pub 7470
▁poss 7471
▁poo 7472
▁plac 7473
▁mend 7474
▁marvellous 7475
▁mah 7476
▁invented 7477
▁hypot 7478
▁hoop 7479
▁georg 7480
▁excurs 7481
▁dignified 7482
▁dexter 7483
▁desolate 7484
▁courtesy 7485
▁conseil 7486
▁conclude 7487
▁comprehend 7488
▁circles 7489
▁charlotte 7490
▁brill 7491
▁bobby 7492
▁apprehe 7493
▁annoyed 7494
▁andy 7495
▁admin 7496
▁accus 7497
iston 7498
borough 7499
▁yawn 7500
▁whir 7501
▁welcomed 7502
▁waistcoat 7503
▁unnecessary 7504
▁unacc 7505
▁tune 7506
▁tooth 7507
▁subdued 7508
▁strikes 7509
▁strained 7510
▁stake 7511
▁skir 7512
▁siege 7513
▁screw 7514
▁production 7515
▁primitive 7516
▁pic 7517
▁obli 7518
▁needn 7519
▁mute 7520
▁mak 7521
▁incons 7522
▁harris 7523
▁glen 7524
▁faculties 7525
▁combination 7526
▁bour 7527
▁alexandrov 7528
▁agnes 7529
▁additional 7530
za 7531
ittered 7532
iner 7533
hens 7534
▁yer 7535
▁worried 7536
▁villages 7537
▁traces 7538
▁studies 7539
▁ster 7540
▁sobs 7541
▁sheets 7542
▁seam 7543
▁scramb 7544
▁sag 7545
▁sadness 7546
▁roger 7547
▁na 7548
▁musket 7549
▁miracle 7550
▁maint 7551
▁leslie 7552
▁lau 7553
▁keith 7554
▁israel 7555
▁gross 7556
▁eric 7557
▁eliza 7558
▁dreadfully 7559
▁dischar 7560
▁deceive 7561
▁cultivated 7562
▁crowds 7563
▁condes 7564
▁comforted 7565
▁comfortably 7566
▁calculated 7567
▁bronze 7568
▁brim 7569
▁bliss 7570
▁behave 7571
▁beau 7572
▁aramis 7573
▁advert 7574
vid 7575
ulously 7576
oll 7577
oid 7578
ography 7579
mun 7580
ither 7581
fast 7582
aped 7583
▁tus 7584
▁surp 7585
▁suck 7586
▁stump 7587
▁strings 7588
▁stew 7589
▁split 7590
▁shower 7591
▁shouts 7592
▁robes 7593
▁robbers 7594
▁revolver 7595
▁relieve 7596
▁quitted 7597
▁pudding 7598
▁phenomenon 7599
▁painter 7600
▁ordin 7601
▁nour 7602
▁ninth 7603
▁moves 7604
▁moder 7605
▁laure 7606
▁knot 7607
▁indicate 7608
▁identity 7609
▁hebrew 7610
▁hamm 7611
▁greeting 7612
▁grav 7613
▁gird 7614
▁flashing 7615
▁falsehood 7616
▁expressing 7617
▁embarrassment 7618
▁dismal 7619
▁defined 7620
▁crisis 7621
▁contradict 7622
▁continual 7623
▁cathedral 7624
▁brace 7625
▁attendant 7626
▁ath 7627
▁alert 7628
▁agents 7629
▁advent 7630
vern 7631
omy 7632
olk 7633
ield 7634
icate 7635
cible 7636
boy 7637
agon 7638
▁wiser 7639
▁washing 7640
▁varied 7641
▁unch 7642
▁swallow 7643
▁sternly 7644
▁solution 7645
▁sledge 7646
▁separ 7647
▁rost 7648
▁readiness 7649
▁readers 7650
▁rans 7651
▁mules 7652
▁mirth 7653
▁jon 7654
▁jerusalem 7655
▁inherit 7656
▁imagin 7657
▁hail 7658
▁governed 7659
▁goin 7660
▁furiously 7661
▁fol 7662
▁farmers 7663
▁envelop 7664
▁egyptian 7665
▁edison 7666
▁doctors 7667
▁desirous 7668
▁considerably 7669
▁coldly 7670
▁cherished 7671
▁assent 7672
ushed 7673
uments 7674
rage 7675
oting 7676
olate 7677
mb 7678
iary 7679
fer 7680
▁workers 7681
▁withdra 7682
▁team 7683
▁tart 7684
▁spectacles 7685
▁senate 7686
▁scholar 7687
▁quad 7688
▁pump 7689
▁proudly 7690
▁pierced 7691
▁parker 7692
▁parallel 7693
▁invariably 7694
▁intelligible 7695
▁incred 7696
▁impet 7697
▁hymn 7698
▁gleaming 7699
▁gaunt 7700
▁garment 7701
▁fishes 7702
▁exciting 7703
▁exchanged 7704
▁elm 7705
▁elected 7706
▁dixon 7707
▁demon 7708
▁critical 7709
▁crimes 7710
▁constance 7711
▁chambers 7712
▁bake 7713
▁arist 7714
▁approve 7715
▁appl 7716
vey 7717
smith 7718
oral 7719
itations 7720
era 7721
cend 7722
▁witnessed 7723
▁tulliver 7724
▁swell 7725
▁stealing 7726
▁replaced 7727
▁refres 7728
▁prover 7729
▁pleasantly 7730
▁parlor 7731
▁meals 7732
▁justly 7733
▁introduction 7734
▁intensity 7735
▁handful 7736
▁forese 7737
▁flav 7738
▁experiments 7739
▁doom 7740
▁disci 7741
▁consum 7742
▁clinging 7743
▁chicago 7744
▁challenge 7745
▁bitterness 7746
▁bisc 7747
▁auth 7748
▁attendants 7749
▁ascend 7750
▁apparatus 7751
▁aladdin 7752
versed 7753
ste 7754
leg 7755
itating 7756
idity 7757
ervation 7758
dles 7759
coat 7760
bow 7761
aciously 7762
▁witnesses 7763
▁whistle 7764
▁tempest 7765
▁sorrows 7766
▁shrill 7767
▁presume 7768
▁ponder 7769
▁organization 7770
▁onward 7771
▁offers 7772
▁morality 7773
▁misunder 7774
▁leaping 7775
▁isle 7776
▁impr 7777
▁honourable 7778
▁hasten 7779
▁happening 7780
▁fist 7781
▁expert 7782
▁excell 7783
▁deepest 7784
▁create 7785
▁confront 7786
▁commit 7787
▁chauvelin 7788
▁battery 7789
▁ape 7790
▁advoc 7791
▁acquaint 7792
▁accommod 7793
urned 7794
net 7795
icious 7796
da 7797
aut 7798
▁whispering 7799
▁warmly 7800
▁ware 7801
▁unkind 7802
▁talent 7803
▁stretching 7804
▁repuls 7805
▁quest 7806
▁precise 7807
▁pluck 7808
▁pipes 7809
▁oz 7810
▁outline 7811
▁magaz 7812
▁loaf 7813
▁leonora 7814
▁juice 7815
▁han 7816
▁folds 7817
▁felicity 7818
▁exercised 7819
▁dependent 7820
▁crooked 7821
▁crit 7822
▁correspondence 7823
▁consol 7824
▁colony 7825
▁cane 7826
▁cabinet 7827
▁awhile 7828
wed 7829
urance 7830
inda 7831
ifies 7832
cope 7833
▁wist 7834
▁tidings 7835
▁syn 7836
▁sup 7837
▁succ 7838
▁sque 7839
▁review 7840
▁pref 7841
▁picturesque 7842
▁peered 7843
▁overfl 7844
▁nostr 7845
▁negot 7846
▁maria 7847
▁lungs 7848
▁loos 7849
▁lined 7850
▁liking 7851
▁laden 7852
▁imposed 7853
▁hurled 7854
▁fug 7855
▁freed 7856
▁fab 7857
▁expand 7858
▁endured 7859
▁drawer 7860
▁distressed 7861
▁defiance 7862
▁cups 7863
▁courte 7864
▁contrad 7865
▁chast 7866
▁butcher 7867
▁barb 7868
▁arriving 7869
▁alex 7870
urred 7871
ouncing 7872
nox 7873
ller 7874
dled 7875
atical 7876
asting 7877
▁youthful 7878
▁ungr 7879
▁twentieth 7880
▁trumpet 7881
▁trifling 7882
▁throb 7883
▁thicket 7884
▁tearing 7885
▁sunrise 7886
▁sleeve 7887
▁slaughter 7888
▁skins 7889
▁resolve 7890
▁requis 7891
▁races 7892
▁que 7893
▁provinces 7894
▁owl 7895
▁myles 7896
▁medic 7897
▁martyr 7898
▁ladyship 7899
▁jan 7900
▁isabella 7901
▁interp 7902
▁internal 7903
▁innumerable 7904
▁indign 7905
▁immortal 7906
▁hunters 7907
▁hea 7908
▁fashionable 7909
▁endeavoured 7910
▁encouragement 7911
▁donkey 7912
▁damn 7913
▁crowned 7914
▁confirm 7915
▁captive 7916
▁butterfly 7917
▁bulk 7918
▁budd 7919
▁blazing 7920
▁befall 7921
▁au 7922
▁allen 7923
ucc 7924
sky 7925
olph 7926
keeper 7927
ceptions 7928
arge 7929
▁volumes 7930
▁upro 7931
▁totally 7932
▁termin 7933
▁tasted 7934
▁speeches 7935
▁sic 7936
▁roared 7937
▁rightly 7938
▁purchased 7939
▁producing 7940
▁prep 7941
▁plough 7942
▁julie 7943
▁instinctively 7944
▁happier 7945
▁hammer 7946
▁hamilton 7947
▁gale 7948
▁explore 7949
▁erected 7950
▁enthusiastic 7951
▁distrust 7952
▁dilig 7953
▁digging 7954
▁cursed 7955
▁conveyed 7956
▁coinc 7957
▁claws 7958
▁christians 7959
▁bry 7960
▁boss 7961
▁behaviour 7962
▁barric 7963
▁backwards 7964
▁ascended 7965
▁appoint 7966
▁affections 7967
utation 7968
uries 7969
uation 7970
rench 7971
read 7972
ndy 7973
master 7974
lex 7975
inent 7976
iam 7977
ials 7978
gings 7979
estion 7980
ential 7981
▁wrist 7982
▁waiter 7983
▁univers 7984
▁tricks 7985
▁traveling 7986
▁temperament 7987
▁strait 7988
▁scrooge 7989
▁respected 7990
▁refined 7991
▁recommended 7992
▁reckoned 7993
▁pupil 7994
▁promising 7995
▁proceedings 7996
▁pharaoh 7997
▁owed 7998
▁overp 7999
▁lob 8000
▁inquis 8001
▁indignant 8002
▁honorable 8003
▁herd 8004
▁generals 8005
▁fost 8006
▁forbid 8007
▁feminine 8008
▁favourable 8009
▁eyebrows 8010
▁eth 8011
▁dreary 8012
▁divide 8013
▁destro 8014
▁despise 8015
▁cyn 8016
▁curate 8017
▁crumbs 8018
▁commence 8019
▁border 8020
▁believes 8021
▁banker 8022
▁bands 8023
▁babylon 8024
▁asks 8025
ushes 8026
rupt 8027
mother 8028
itte 8029
iph 8030
illery 8031
ees 8032
▁wond 8033
▁wendy 8034
▁vag 8035
▁vacant 8036
▁unhapp 8037
▁uneasiness 8038
▁types 8039
▁trun 8040
▁treaty 8041
▁towers 8042
▁suppressed 8043
▁substantial 8044
▁sobbed 8045
▁scound 8046
▁radiant 8047
▁praised 8048
▁pomp 8049
▁penal 8050
▁patty 8051
▁omn 8052
▁nar 8053
▁ment 8054
▁meek 8055
▁lor 8056
▁lingered 8057
▁liable 8058
▁intimacy 8059
▁infantry 8060
▁heroic 8061
▁faithfully 8062
▁eyel 8063
▁extremity 8064
▁extract 8065
▁encl 8066
▁diso 8067
▁disli 8068
▁depended 8069
▁defense 8070
▁decre 8071
▁darcy 8072
▁curled 8073
▁communic 8074
▁columns 8075
▁chapel 8076
▁cant 8077
▁blunt 8078
▁asce 8079
▁apprehens 8080
▁anticipated 8081
upt 8082
umber 8083
udes 8084
ther 8085
rude 8086
rons 8087
ixt 8088
ffin 8089
ession 8090
eration 8091
bation 8092
aws 8093
arers 8094
amble 8095
▁worsh 8096
▁venerable 8097
▁tuesday 8098
▁sweat 8099
▁substances 8100
▁statue 8101
▁spake 8102
▁samuel 8103
▁resentment 8104
▁rebu 8105
▁posts 8106
▁momentary 8107
▁maker 8108
▁mabel 8109
▁irresistible 8110
▁investigation 8111
▁hunts 8112
▁humming 8113
▁grunt 8114
▁greet 8115
▁fuss 8116
▁fantastic 8117
▁energet 8118
▁emph 8119
▁emerged 8120
▁discharge 8121
▁daniel 8122
▁cooked 8123
▁construction 8124
▁confer 8125
▁carries 8126
▁cargo 8127
▁buffal 8128
▁bruce 8129
▁babies 8130
▁augustine 8131
▁attachment 8132
▁abundant 8133
pel 8134
iture 8135
iqu 8136
ipper 8137
ince 8138
ilian 8139
iah 8140
here 8141
gger 8142
break 8143
anna 8144
anges 8145
aimed 8146
▁wigg 8147
▁victims 8148
▁valleys 8149
▁teachers 8150
▁skilful 8151
▁retained 8152
▁resort 8153
▁reckless 8154
▁prior 8155
▁piled 8156
▁pett 8157
▁panting 8158
▁opportunities 8159
▁multipl 8160
▁mines 8161
▁mechanical 8162
▁liquor 8163
▁lang 8164
▁lakes 8165
▁ja 8166
▁hyster 8167
▁highway 8168
▁higg 8169
▁heated 8170
▁hears 8171
▁harp 8172
▁hark 8173
▁hardship 8174
▁grieved 8175
▁gret 8176
▁ghastly 8177
▁dora 8178
▁dimly 8179
▁decay 8180
▁criticism 8181
▁contem 8182
▁coin 8183
▁cit 8184
▁chopped 8185
▁choked 8186
▁chick 8187
▁chancellor 8188
▁begging 8189
▁barbara 8190
▁artistic 8191
▁ambitious 8192
▁allowing 8193
▁admir 8194
zan 8195
rol 8196
itched 8197
ird 8198
hor 8199
bles 8200
arth 8201
▁talents 8202
▁sung 8203
▁springing 8204
▁solely 8205
▁shrub 8206
▁scholars 8207
▁salvation 8208
▁remarkably 8209
▁rejo 8210
▁reaction 8211
▁rack 8212
▁prest 8213
▁pious 8214
▁pilot 8215
▁peg 8216
▁pagan 8217
▁nerve 8218
▁myth 8219
▁mills 8220
▁irrit 8221
▁hyd 8222
▁hospitality 8223
▁heights 8224
▁fut 8225
▁feeding 8226
▁exting 8227
▁exclamation 8228
▁evenings 8229
▁envelope 8230
▁drifted 8231
▁dealing 8232
▁crawled 8233
▁corps 8234
▁consulted 8235
▁conform 8236
▁compact 8237
▁buff 8238
▁batter 8239
▁attending 8240
▁approved 8241
▁appearing 8242
▁ancestors 8243
▁acquire 8244
▁acid 8245
wr 8246
otten 8247
omet 8248
nings 8249
bows 8250
ama 8251
▁sweeping 8252
▁stockings 8253
▁sobbing 8254
▁rip 8255
▁pyr 8256
▁propos 8257
▁presum 8258
▁plane 8259
▁pint 8260
▁partial 8261
▁orph 8262
▁mum 8263
▁monks 8264
▁meetings 8265
▁max 8266
▁marcella 8267
▁luncheon 8268
▁jumping 8269
▁heath 8270
▁growled 8271
▁groaned 8272
▁gaily 8273
▁fu 8274
▁dragging 8275
▁dissip 8276
▁disappro 8277
▁cove 8278
▁cos 8279
▁colle 8280
▁carriages 8281
▁bridle 8282
▁beer 8283
▁awfully 8284
▁ardent 8285
▁animated 8286
▁absor 8287
stead 8288
ouch 8289
osis 8290
ivities 8291
ilda 8292
eys 8293
bourne 8294
ba 8295
▁yea 8296
▁wednesday 8297
▁vaguely 8298
▁unreason 8299
▁unity 8300
▁tommy 8301
▁toes 8302
▁toast 8303
▁ti 8304
▁spoiled 8305
▁sleepy 8306
▁sinister 8307
▁shrugged 8308
▁scor 8309
▁respectfully 8310
▁repeating 8311
▁procured 8312
▁plump 8313
▁philosop 8314
▁outrage 8315
▁obstin 8316
▁lame 8317
▁jungle 8318
▁invite 8319
▁inhabited 8320
▁impe 8321
▁ide 8322
▁esther 8323
▁eminent 8324
▁dined 8325
▁convince 8326
▁comprom 8327
▁complicated 8328
▁bib 8329
▁bann 8330
▁antagon 8331
oke 8332
occ 8333
lle 8334
itimate 8335
itably 8336
ident 8337
cus 8338
bling 8339
away 8340
▁withdraw 8341
▁whereby 8342
▁virtuous 8343
▁toad 8344
▁thereof 8345
▁tastes 8346
▁suspicions 8347
▁superiority 8348
▁sulph 8349
▁sticking 8350
▁simult 8351
▁sexual 8352
▁rugged 8353
▁ridic 8354
▁ponies 8355
▁politic 8356
▁physic 8357
▁ord 8358
▁latest 8359
▁lac 8360
▁infinitely 8361
▁harbor 8362
▁ginger 8363
▁formation 8364
▁flush 8365
▁excite 8366
▁elderly 8367
▁dusty 8368
▁despised 8369
▁dantes 8370
▁dainty 8371
▁crop 8372
▁complained 8373
▁bounds 8374
▁astron 8375
▁acute 8376
usively 8377
ripp 8378
ppers 8379
pen 8380
ortions 8381
lings 8382
iven 8383
irk 8384
inton 8385
ieth 8386
idence 8387
ggs 8388
▁wren 8389
▁twins 8390
▁trif 8391
▁transm 8392
▁surgeon 8393
▁stormy 8394
▁spotted 8395
▁snuff 8396
▁sle 8397
▁rever 8398
▁respectful 8399
▁resol 8400
▁prudent 8401
▁princesses 8402
▁politely 8403
▁overth 8404
▁opera 8405
▁murm 8406
▁mes 8407
▁memor 8408
▁kindred 8409
▁jour 8410
▁hypocr 8411
▁hesitating 8412
▁happ 8413
▁hanged 8414
▁garrison 8415
▁fren 8416
▁feverish 8417
▁exter 8418
▁explo 8419
▁estates 8420
▁earthqu 8421
▁doomed 8422
▁differ 8423
▁deserves 8424
▁cul 8425
▁converse 8426
▁communicate 8427
▁cage 8428
▁buzz 8429
▁brut 8430
▁beforehand 8431
▁backed 8432
▁array 8433
▁allies 8434
ulus 8435
terest 8436
pan 8437
mates 8438
lyn 8439
ida 8440
erved 8441
erity 8442
eping 8443
bell 8444
augh 8445
▁yor 8446
▁wrest 8447
▁westward 8448
▁upwards 8449
▁turk 8450
▁tray 8451
▁transparent 8452
▁tract 8453
▁torch 8454
▁thrill 8455
▁techn 8456
▁stur 8457
▁stealth 8458
▁sob 8459
▁sequ 8460
▁secondly 8461
▁scen 8462
▁resc 8463
▁propriety 8464
▁prominent 8465
▁percy 8466
▁perce 8467
▁pencroft 8468
▁pans 8469
▁oft 8470
▁moo 8471
▁metaph 8472
▁massive 8473
▁lanyard 8474
▁keenly 8475
▁husbands 8476
▁greece 8477
▁gorgeous 8478
▁gert 8479
▁fyodor 8480
▁fret 8481
▁downward 8482
▁divor 8483
▁disgu 8484
▁diplom 8485
▁defeated 8486
▁damage 8487
▁commissioner 8488
▁celia 8489
▁bachelor 8490
▁appropriate 8491
uv 8492
rin 8493
nown 8494
ige 8495
edly 8496
ciences 8497
abby 8498
▁wreat 8499
▁watson 8500
▁verloc 8501
▁verily 8502
▁uttering 8503
▁tyranny 8504
▁tragic 8505
▁tongues 8506
▁spectators 8507
▁sincerely 8508
▁shuddered 8509
▁shillings 8510
▁saints 8511
▁rolls 8512
▁restaur 8513
▁republican 8514
▁remo 8515
▁reigned 8516
▁pist 8517
▁pict 8518
▁petersburg 8519
▁padd 8520
▁overwhelmed 8521
▁originally 8522
▁oppressed 8523
▁objected 8524
▁obed 8525
▁marquis 8526
▁impud 8527
▁henri 8528
▁henceforth 8529
▁governess 8530
▁gil 8531
▁embroidered 8532
▁embarrassed 8533
▁eloquence 8534
▁dow 8535
▁dou 8536
▁counting 8537
▁cough 8538
▁costume 8539
▁ced 8540
▁blushed 8541
▁belle 8542
▁assigned 8543
▁andrea 8544
▁alf 8545
▁adorned 8546
zzle 8547
rup 8548
rants 8549
omp 8550
imes 8551
idences 8552
icit 8553
iantly 8554
eric 8555
entially 8556
bit 8557
bered 8558
asty 8559
abouts 8560
▁whale 8561
▁vicar 8562
▁undertaking 8563
▁treasury 8564
▁tavern 8565
▁swing 8566
▁staggered 8567
▁shapes 8568
▁seasons 8569
▁ridden 8570
▁pulse 8571
▁praying 8572
▁panic 8573
▁negroes 8574
▁navy 8575
▁manufacture 8576
▁mantle 8577
▁jove 8578
▁insign 8579
▁henrietta 8580
▁heaps 8581
▁haughty 8582
▁grate 8583
▁gramm 8584
▁glor 8585
▁gest 8586
▁extending 8587
▁expenses 8588
▁exercises 8589
▁exclaim 8590
▁escort 8591
▁encourage 8592
▁dismiss 8593
▁descending 8594
▁chanced 8595
▁brutal 8596
▁bottles 8597
▁blankets 8598
▁bessy 8599
▁advertis 8600
▁abuse 8601
worthy 8602
uate 8603
quate 8604
mouth 8605
llig 8606
iron 8607
inted 8608
inald 8609
hy 8610
elity 8611
chet 8612
char 8613
bons 8614
akable 8615
agn 8616
agers 8617
▁whiskers 8618
▁vit 8619
▁unqu 8620
▁unexpectedly 8621
▁sustained 8622
▁sty 8623
▁sprung 8624
▁shaft 8625
▁ruled 8626
▁retreated 8627
▁recorded 8628
▁rascal 8629
▁philosophers 8630
▁overwhel 8631
▁mysteries 8632
▁monaster 8633
▁manager 8634
▁maids 8635
▁languid 8636
▁knocking 8637
▁knit 8638
▁involuntarily 8639
▁inquir 8640
▁hab 8641
▁gravel 8642
▁fulfil 8643
▁fits 8644
▁fiend 8645
▁exal 8646
▁ecclesi 8647
▁dyn 8648
▁diet 8649
▁courtyard 8650
▁consumption 8651
▁coats 8652
▁carth 8653
▁bord 8654
▁barren 8655
▁attentively 8656
▁adjoining 8657
yon 8658
water 8659
vin 8660
oose 8661
irl 8662
iber 8663
han 8664
gage 8665
fered 8666
entric 8667
din 8668
cript 8669
chus 8670
▁widely 8671
▁wan 8672
▁unusually 8673
▁tumbled 8674
▁traced 8675
▁tank 8676
▁tack 8677
▁submitted 8678
▁strip 8679
▁socrates 8680
▁sniff 8681
▁snap 8682
▁shadowy 8683
▁sentences 8684
▁satisf 8685
▁restrain 8686
▁prejudice 8687
▁phill 8688
▁parr 8689
▁oxford 8690
▁outst 8691
▁nodding 8692
▁neighboring 8693
▁magnific 8694
▁limb 8695
▁labore 8696
▁incomp 8697
▁incense 8698
▁imitation 8699
▁gut 8700
▁gild 8701
▁gig 8702
▁gabriel 8703
▁fundamental 8704
▁fetched 8705
▁ferv 8706
▁explaining 8707
▁everl 8708
▁esteemed 8709
▁econom 8710
▁ecc 8711
▁dramatic 8712
▁disg 8713
▁device 8714
▁deject 8715
▁deem 8716
▁cracked 8717
▁costly 8718
▁contemplation 8719
▁chorus 8720
▁bot 8721
▁bestow 8722
▁analysis 8723
▁amend 8724
urrection 8725
owers 8726
isions 8727
isen 8728
ffic 8729
eries 8730
ders 8731
bird 8732
bes 8733
ball 8734
asper 8735
▁worlds 8736
▁winchester 8737
▁wi 8738
▁trades 8739
▁thirsty 8740
▁tet 8741
▁tempor 8742
▁talks 8743
▁tablespoonful 8744
▁storms 8745
▁slipping 8746
▁resembled 8747
▁realm 8748
▁quant 8749
▁preceded 8750
▁passive 8751
▁nail 8752
▁mim 8753
▁limp 8754
▁legislature 8755
▁ingenious 8756
▁finer 8757
▁fem 8758
▁encoura 8759
▁enclosed 8760
▁edges 8761
▁discern 8762
▁dial 8763
▁decis 8764
▁courts 8765
▁conse 8766
▁clement 8767
▁caut 8768
▁canoe 8769
▁bursting 8770
▁breaks 8771
▁blushing 8772
▁attraction 8773
▁armour 8774
▁architecture 8775
▁arbit 8776
▁anch 8777
▁almighty 8778
▁admiring 8779
▁ade 8780
yers 8781
self 8782
rodu 8783
istry 8784
gest 8785
aza 8786
aught 8787
▁wegg 8788
▁tyrant 8789
▁touches 8790
▁tonight 8791
▁syll 8792
▁surroundings 8793
▁stray 8794
▁sting 8795
▁significant 8796
▁ruby 8797
▁ripp 8798
▁rejoice 8799
▁purch 8800
▁protestant 8801
▁pleases 8802
▁plead 8803
▁organs 8804
▁noticing 8805
▁nineteenth 8806
▁nicely 8807
▁negative 8808
▁loft 8809
▁juliet 8810
▁jess 8811
▁idol 8812
▁hounds 8813
▁hart 8814
▁harold 8815
▁freck 8816
▁equip 8817
▁discoura 8818
▁disad 8819
▁detected 8820
▁delic 8821
▁decline 8822
▁countless 8823
▁considerations 8824
▁conserv 8825
▁clergy 8826
▁civ 8827
▁chant 8828
▁boughs 8829
▁argue 8830
woman 8831
utable 8832
raft 8833
osa 8834
imble 8835
icy 8836
gone 8837
ersed 8838
eron 8839
du 8840
▁weariness 8841
▁viv 8842
▁underground 8843
▁tempered 8844
▁striving 8845
▁specific 8846
▁secl 8847
▁saluted 8848
▁roofs 8849
▁rejoicing 8850
▁reflecting 8851
▁reappe 8852
▁poles 8853
▁perplexity 8854
▁obtaining 8855
▁messages 8856
▁mammy 8857
▁lyn 8858
▁lumber 8859
▁indulgence 8860
▁hereafter 8861
▁greeks 8862
▁gospel 8863
▁examples 8864
▁embr 8865
▁economy 8866
▁earned 8867
▁dinsmore 8868
▁dagger 8869
▁curls 8870
▁climate 8871
▁capit 8872
▁calf 8873
▁burd 8874
▁blanket 8875
▁bi 8876
▁applause 8877
▁anth 8878
▁alliance 8879
▁acres 8880
▁achie 8881
urous 8882
rehens 8883
ply 8884
oom 8885
oly 8886
ippi 8887
▁virg 8888
▁untr 8889
▁tas 8890
▁sue 8891
▁strand 8892
▁sentin 8893
▁sect 8894
▁ropes 8895
▁proofs 8896
▁produ 8897
▁pavl 8898
▁neut 8899
▁museum 8900
▁mole 8901
▁logs 8902
▁league 8903
▁laun 8904
▁humph 8905
▁grip 8906
▁finan 8907
▁dul 8908
▁depri 8909
▁dal 8910
▁cate 8911
▁bury 8912
▁bored 8913
▁bacon 8914
▁athos 8915
▁armor 8916
▁adjust 8917
rily 8918
oft 8919
ivable 8920
gard 8921
erted 8922
ensed 8923
anning 8924
▁proble 8925
▁incon 8926
▁eas 8927
▁batt 8928
yer 8929
ortion 8930
lect 8931
cles 8932
alous 8933
lish 8934
▁phot 8935
▁musk 8936
▁gran 8937
▁gh 8938
resh 8939
ivers 8940
inite 8941
▁wol 8942
▁shar 8943
▁sevent 8944
▁plun 8945
▁dav 8946
▁betr 8947
▁pros 8948
▁proc 8949
▁oct 8950
▁comprehe 8951
▁bir 8952
itary 8953
amation 8954
▁trump 8955
▁meth 8956
▁manif 8957
▁lux 8958
▁iss 8959
▁hed 8960
▁gor 8961
▁easter 8962
▁bess 8963
rom 8964
ng 8965
bour 8966
aval 8967
▁wes 8968
▁fow 8969
outs 8970
erial 8971
aph 8972
▁unex 8973
▁narr 8974
▁manufact 8975
▁inher 8976
▁clim 8977
cr 8978
▁ves 8979
▁transp 8980
▁summon 8981
▁puzz 8982
▁princip 8983
▁nerv 8984
▁compar 8985
of 8986
iently 8987
eps 8988
▁wre 8989
▁spec 8990
▁rif 8991
▁inev 8992
▁enterpr 8993
▁eleg 8994
▁bod 8995
▁bask 8996
▁aver 8997
uary 8998
cient 8999
▁japan 9000
▁dus 9001
▁bewild 9002
rit 9003
olic 9004
nce 9005
lection 9006
ention 9007
anger 9008
▁introdu 9009
▁glac 9010
q 9011
ife 9012
ghed 9013
chie 9014
asure 9015
▁vel 9016
▁sof 9017
▁eloqu 9018
▁cyr 9019
▁appet 9020
wer 9021
vet 9022
ffect 9023
father 9024
elt 9025
dden 9026
ancing 9027
▁somet 9028
▁marve 9029
▁magistr 9030
▁dro 9031
▁displ 9032
▁disappe 9033
▁disapp 9034
▁acknowled 9035
wise 9036
oved 9037
outh 9038
lv 9039
ilar 9040
▁span 9041
▁fatig 9042
▁dise 9043
tend 9044
oqu 9045
come 9046
add 9047
▁horiz 9048
uer 9049
alth 9050
▁explan 9051
▁cott 9052
▁construct 9053
inger 9054
ect 9055
▁recom 9056
▁feat 9057
▁doctr 9058
▁chann 9059
▁bos 9060
▁belie 9061
▁behav 9062
▁ange 9063
▁alm 9064
▁afric 9065
reat 9066
ffe 9067
dom 9068
▁uneas 9069
▁sylv 9070
▁involunt 9071
▁infer 9072
▁cryst 9073
▁bene 9074
ike 9075
ensity 9076
ago 9077
▁perm 9078
▁crim 9079
▁beh 9080
▁appropri 9081
▁mans 9082
▁invest 9083
▁fanc 9084
▁distur 9085
▁compan 9086
▁appar 9087
mn 9088
▁strugg 9089
▁offic 9090
▁musc 9091
▁mul 9092
▁meas 9093
▁diam 9094
▁dang 9095
▁assemb 9096
▁arri 9097
uish 9098
uced 9099
raph 9100
empt 9101
▁resent 9102
▁pear 9103
▁imposs 9104
▁holl 9105
▁aug 9106
rov 9107
rose 9108
idden 9109
hn 9110
enc 9111
▁temp 9112
▁landl 9113
▁hes 9114
▁flore 9115
▁ancest 9116
▁adorn 9117
retched 9118
ourse 9119
enger 9120
after 9121
▁surre 9122
▁stret 9123
▁pleas 9124
▁daz 9125
▁archite 9126
▁applic 9127
mas 9128
itty 9129
erves 9130
ception 9131
▁unse 9132
▁trave 9133
▁mour 9134
▁fount 9135
▁emphas 9136
▁dre 9137
rees 9138
oul 9139
ishop 9140
ifully 9141
angers 9142
▁swall 9143
▁surf 9144
▁situ 9145
▁scient 9146
▁hospit 9147
▁cir 9148
fore 9149
▁reck 9150
▁provin 9151
▁enthusi 9152
ouses 9153
onsie 9154
eral 9155
enance 9156
abel 9157
▁suf 9158
▁quiver 9159
▁lan 9160
▁espe 9161
▁enj 9162
▁deg 9163
▁atl 9164
uf 9165
idently 9166
gie 9167
▁shru 9168
▁respons 9169
▁resp 9170
▁incre 9171
▁embro 9172
▁challen 9173
osity 9174
oman 9175
isters 9176
held 9177
col 9178
▁voy 9179
▁sovere 9180
▁lone 9181
▁embar 9182
▁desir 9183
▁pud 9184
▁frequ 9185
▁convin 9186
▁abrupt 9187
oney 9188
▁embarrass 9189
resp 9190
ause 9191
ari 9192
▁tig 9193
▁stren 9194
▁libert 9195
▁insp 9196
▁eld 9197
ead 9198
▁relig 9199
▁norm 9200
▁instit 9201
▁inhabit 9202
▁gard 9203
▁extrem 9204
▁cann 9205
▁analy 9206
▁ug 9207
▁resour 9208
▁repres 9209
▁portra 9210
▁pip 9211
▁cere 9212
thing 9213
tain 9214
standing 9215
keep 9216
▁seren 9217
▁scre 9218
▁rasc 9219
▁propert 9220
▁ener 9221
▁distingu 9222
▁chee 9223
oot 9224
medi 9225
icity 9226
engers 9227
apt 9228
▁sie 9229
▁horri 9230
▁estab 9231
▁avo 9232
over 9233
ital 9234
forth 9235
bar 9236
▁uncom 9237
▁respond 9238
▁prob 9239
▁les 9240
▁jul 9241
▁gaz 9242
▁alexand 9243
enses 9244
cho 9245
athered 9246
▁leon 9247
▁immort 9248
▁gree 9249
▁fier 9250
▁bund 9251
▁brit 9252
ura 9253
oying 9254
idding 9255
arf 9256
amber 9257
▁nin 9258
▁inqu 9259
▁hist 9260
▁contr 9261
hand 9262
achment 9263
▁wip 9264
▁tou 9265
▁parad 9266
▁lea 9267
▁hyp 9268
▁fing 9269
back 9270
▁virt 9271
▁troub 9272
▁pil 9273
▁perman 9274
▁bron 9275
how 9276
apes 9277
▁tid 9278
▁independ 9279
▁fart 9280
omen 9281
ational 9282
arest 9283
▁vir 9284
▁russ 9285
▁muse 9286
▁hosp 9287
wh 9288
ront 9289
lon 9290
chan 9291
▁patri 9292
▁dire 9293
▁clos 9294
sis 9295
iour 9296
cture 9297
sect 9298
ittle 9299
gment 9300
▁pir 9301
▁peas 9302
▁gorge 9303
▁consid 9304
ocr 9305
ept 9306
eous 9307
elia 9308
aret 9309
ague 9310
▁serge 9311
▁pav 9312
▁geor 9313
▁felic 9314
▁educ 9315
rison 9316
lance 9317
cond 9318
▁prud 9319
▁clot 9320
ulf 9321
case 9322
anch 9323
abled 9324
▁surpr 9325
▁psy 9326
ointed 9327
ceiving 9328
actory 9329
▁wel 9330
▁purp 9331
▁innoc 9332
▁cult 9333
esh 9334
band 9335
anz 9336
▁sla 9337
▁glit 9338
tha 9339
▁scare 9340
▁pard 9341
▁irres 9342
unity 9343
olen 9344
mith 9345
hew 9346
▁stup 9347
▁hun 9348
▁dign 9349
▁ambit 9350
cca 9351
anny 9352
▁remem 9353
▁disco 9354
▁deter 9355
▁artic 9356
tended 9357
teen 9358
pet 9359
oonful 9360
agues 9361
▁penc 9362
▁mich 9363
▁gos 9364
olute 9365
nal 9366
ek 9367
ceived 9368
▁orch 9369
▁eag 9370
▁dir 9371
▁consequ 9372
uge 9373
isk 9374
irmed 9375
▁spani 9376
oused 9377
ingu 9378
▁rele 9379
▁phoen 9380
▁occ 9381
▁ey 9382
▁etern 9383
▁artific 9384
sequ 9385
kers 9386
icip 9387
aur 9388
▁wee 9389
▁pian 9390
▁pac 9391
▁extraord 9392
▁exam 9393
▁enorm 9394
rect 9395
raid 9396
oubt 9397
agger 9398
acc 9399
▁shakes 9400
▁myster 9401
▁ignor 9402
▁glo 9403
▁gif 9404
ustomed 9405
pected 9406
pap 9407
ourage 9408
oops 9409
nat 9410
lict 9411
iverse 9412
▁tong 9413
▁souther 9414
▁signific 9415
▁sche 9416
▁saf 9417
▁haught 9418
▁fash 9419
▁corpor 9420
pri 9421
etta 9422
▁potat 9423
▁cu 9424
▁cig 9425
orth 9426
aved 9427
▁wilder 9428
▁satur 9429
▁policem 9430
▁dw 9431
▁chau 9432
cei 9433
ael 9434
▁corrid 9435
▁bough 9436
uine 9437
ean 9438
aughter 9439
▁wret 9440
▁prin 9441
▁exerc 9442
▁crist 9443
▁barg 9444
▁agre 9445
oura 9446
ief 9447
ault 9448
▁teleph 9449
▁sout 9450
▁peters 9451
▁org 9452
▁irresist 9453
▁ende 9454
▁encoun 9455
umn 9456
road 9457
rane 9458
pended 9459
ipl 9460
form 9461
▁vall 9462
▁tremend 9463
▁surround 9464
▁obs 9465
▁liter 9466
▁footst 9467
urd 9468
rection 9469
oise 9470
▁suc 9471
▁obt 9472
▁libr 9473
▁gover 9474
▁gab 9475
▁exch 9476
▁disd 9477
▁disag 9478
▁committ 9479
lot 9480
ground 9481
body 9482
asha 9483
▁territ 9484
▁sympt 9485
▁merch 9486
▁mach 9487
▁intellig 9488
▁anx 9489
wered 9490
now 9491
loc 9492
istr 9493
cell 9494
▁tast 9495
▁subl 9496
▁struct 9497
▁pag 9498
▁ital 9499
▁incap 9500
▁bern 9501
▁apr 9502
ream 9503
osp 9504
icing 9505
akened 9506
▁polit 9507
▁nich 9508
▁canv 9509
▁aftern 9510
▁adop 9511
uable 9512
chen 9513
▁vul 9514
▁unple 9515
▁testim 9516
▁relie 9517
▁dut 9518
aration 9519
▁tem 9520
▁goss 9521
▁disagree 9522
▁abund 9523
idge 9524
gence 9525
awn 9526
▁welcom 9527
▁prepar 9528
▁prair 9529
▁pave 9530
▁liqu 9531
▁desce 9532
▁circumst 9533
ulty 9534
tte 9535
oh 9536
nton 9537
night 9538
nday 9539
iod 9540
▁skil 9541
▁rebe 9542
▁parl 9543
▁norther 9544
▁lear 9545
▁emper 9546
▁asc 9547
ulse 9548
ever 9549
adel 9550
▁umb 9551
▁suspic 9552
▁mead 9553
▁matthe 9554
▁franc 9555
▁discipl 9556
▁chall 9557
▁administr 9558
pless 9559
hus 9560
allel 9561
▁teleg 9562
▁suffic 9563
▁shepher 9564
▁recomme 9565
▁oce 9566
▁nur 9567
▁nav 9568
▁individ 9569
▁chor 9570
▁atmosp 9571
inction 9572
ertain 9573
antial 9574
anches 9575
▁traged 9576
▁jose 9577
▁cree 9578
▁agric 9579
upon 9580
riages 9581
ourable 9582
osite 9583
idable 9584
erve 9585
anor 9586
alla 9587
abell 9588
▁sult 9589
▁opport 9590
▁eust 9591
ndon 9592
hic 9593
anqu 9594
▁empl 9595
▁crumb 9596
▁bec 9597
stairs 9598
sec 9599
othy 9600
mie 9601
atherine 9602
▁uncomfort 9603
▁memb 9604
▁marvell 9605
sie 9606
otions 9607
isible 9608
gered 9609
▁scri 9610
▁scot 9611
▁sacri 9612
pse 9613
pent 9614
ouble 9615
lend 9616
chio 9617
chief 9618
cest 9619
▁wom 9620
▁undoubt 9621
▁umbre 9622
▁treas 9623
▁tob 9624
▁suppl 9625
▁shrew 9626
▁sear 9627
▁eyeb 9628
▁curi 9629
▁chamb 9630
▁bret 9631
roft 9632
plex 9633
ember 9634
▁breat 9635
unning 9636
ulars 9637
semb 9638
▁sept 9639
▁inhab 9640
▁hors 9641
olas 9642
kind 9643
ilton 9644
abella 9645
olet 9646
enth 9647
atus 9648
▁fis 9649
jud 9650
▁valent 9651
▁tum 9652
▁mom 9653
▁experi 9654
▁eur 9655
▁dix 9656
uly 9657
orse 9658
just 9659
een 9660
▁superin 9661
▁obv 9662
▁melan 9663
▁conspic 9664
ustom 9665
unken 9666
gic 9667
eder 9668
arent 9669
▁tremb 9670
▁surr 9671
▁overw 9672
▁estr 9673
▁chur 9674
peare 9675
lars 9676
iform 9677
▁thie 9678
▁jung 9679
▁freder 9680
xter 9681
onscious 9682
esy 9683
arsh 9684
▁sunsh 9685
▁subdu 9686
▁lung 9687
▁entit 9688
▁becom 9689
▁bachel 9690
▁anthe 9691
ober 9692
eem 9693
cheon 9694
adem 9695
▁trous 9696
▁nove 9697
▁neigh 9698
▁naut 9699
▁lieuten 9700
▁distr 9701
soci 9702
rise 9703
hib 9704
arse 9705
▁venge 9706
▁remembr 9707
▁ral 9708
▁parli 9709
▁nighting 9710
▁landsc 9711
▁ec 9712
▁dant 9713
lected 9714
isl 9715
ilst 9716
▁unworth 9717
▁unnecess 9718
▁unk 9719
▁shag 9720
▁polic 9721
▁interfe 9722
▁condem 9723
▁bott 9724
unities 9725
stem 9726
osop 9727
mod 9728
itively 9729
ighed 9730
▁tobac 9731
▁godd 9732
▁fundament 9733
▁fanci 9734
ween 9735
rass 9736
quis 9737
llor 9738
inery 9739
cially 9740
▁twent 9741
▁phenomen 9742
▁orig 9743
▁excit 9744
▁duches 9745
▁attorn 9746
ught 9747
ght 9748
abor 9749
▁tech 9750
▁shud 9751
▁natur 9752
▁monstr 9753
▁manuf 9754
▁femin 9755
▁doct 9756
▁caes 9757
▁aram 9758
▁ans 9759
odor 9760
fice 9761
cules 9762
aign 9763
▁quix 9764
▁napole 9765
▁cris 9766
▁adjo 9767
while 9768
mber 9769
haps 9770
ceive 9771
▁tull 9772
▁schol 9773
▁nons 9774
▁jap 9775
▁ire 9776
▁cathed 9777
▁andre 9778
▁unfortun 9779
▁pock 9780
▁chape 9781
▁aly 9782
oen 9783
iew 9784
iend 9785
idered 9786
gth 9787
fly 9788
alf 9789
▁ville 9790
▁stom 9791
▁pup 9792
▁hig 9793
▁commer 9794
welling 9795
velop 9796
riage 9797
isf 9798
derer 9799
asped 9800
▁interv 9801
▁californ 9802
oiselle 9803
lished 9804
ledge 9805
hile 9806
▁tablesp 9807
▁prod 9808
▁liken 9809
yal 9810
riel 9811
rael 9812
onstr 9813
omon 9814
iday 9815
asons 9816
asant 9817
appe 9818
▁yester 9819
▁scarec 9820
▁fy 9821
▁courty 9822
where 9823
uten 9824
ready 9825
inese 9826
illings 9827
▁underst 9828
▁sugg 9829
▁ninet 9830
▁ghast 9831
▁famil 9832
▁exquis 9833
▁coffe 9834
▁chate 9835
▁charlot 9836
selves 9837
phia 9838
lebr 9839
ldom 9840
cise 9841
cience 9842
bru 9843
aughters 9844
alem 9845
▁princi 9846
▁porth 9847
▁pecul 9848
▁fortun 9849
▁ench 9850
▁citiz 9851
▁americ 9852
osen 9853
onse 9854
llect 9855
leep 9856
ilus 9857
icken 9858
course 9859
andon 9860
▁trium 9861
▁travell 9862
▁socr 9863
▁repub 9864
▁propri 9865
▁phara 9866
▁nodd 9867
▁marcell 9868
▁heb 9869
▁eccles 9870
▁cose 9871
▁chic 9872
▁bost 9873
▁arth 9874
▁ack 9875
velope 9876
jean 9877
▁remar 9878
▁nep 9879
▁cous 9880
▁alto 9881
▁alth 9882
▁almight 9883
▁advant 9884
▁abo 9885
grim 9886
grat 9887
conom 9888
assad 9889
abeth 9890
▁unne 9891
▁twil 9892
▁somewh 9893
▁prisc 9894
▁neighb 9895
▁misfortun 9896
▁leis 9897
▁innum 9898
▁indif 9899
▁hund 9900
▁guil 9901
▁exper 9902
▁eliz 9903
▁dipl 9904
▁dain 9905
▁ceter 9906
▁accom 9907
▁aby 9908
theless 9909
ror 9910
ousand 9911
occhio 9912
itya 9913
ferent 9914
enty 9915
achel 9916
▁weap 9917
▁warri 9918
▁underne 9919
▁twel 9920
▁thresh 9921
▁scul 9922
▁philadel 9923
▁opin 9924
▁kenned 9925
▁handker 9926
▁extrav 9927
▁enem 9928
▁comr 9929
▁compre 9930
▁breth 9931
▁bey 9932
▁atm 9933
withstanding 9934
velin 9935
usalem 9936
remony 9937
regular 9938
raham 9939
ountered 9940
osha 9941
order 9942
ointment 9943
kward 9944
hamed 9945
gypt 9946
cow 9947
choly 9948
addin 9949
